{
  "version": "1.0",
  "truncation": null,
  "padding": null,
  "added_tokens": [
    {
      "id": 0,
      "content": "[UNK]",
      "single_word": false,
      "lstrip": false,
      "rstrip": false,
      "normalized": false,
      "special": true
    },
    {
      "id": 1,
      "content": "[CLS]",
      "single_word": false,
      "lstrip": false,
      "rstrip": false,
      "normalized": false,
      "special": true
    },
    {
      "id": 2,
      "content": "[SEP]",
      "single_word": false,
      "lstrip": false,
      "rstrip": false,
      "normalized": false,
      "special": true
    },
    {
      "id": 3,
      "content": "[PAD]",
      "single_word": false,
      "lstrip": false,
      "rstrip": false,
      "normalized": false,
      "special": true
    },
    {
      "id": 4,
      "content": "[MASK]",
      "single_word": false,
      "lstrip": false,
      "rstrip": false,
      "normalized": false,
      "special": true
    }
  ],
  "normalizer": {
    "type": "Sequence",
    "normalizers": [
      {
        "type": "NFC"
      },
      {
        "type": "Replace",
        "pattern": {
          "String": "ي"
        },
        "content": "ی"
      },
      {
        "type": "Replace",
        "pattern": {
          "String": "ى"
        },
        "content": "ی"
      },
      {
        "type": "Replace",
        "pattern": {
          "String": "ك"
        },
        "content": "ک"
      },
      {
        "type": "Replace",
        "pattern": {
          "String": "ة"
        },
        "content": "ه"
      },
      {
        "type": "Replace",
        "pattern": {
          "String": "ۀ"
        },
        "content": "ه"
      },
      {
        "type": "Replace",
        "pattern": {
          "String": "‍"
        },
        "content": ""
      },
      {
        "type": "Replace",
        "pattern": {
          "String": "﻿"
        },
        "content": ""
      },
      {
        "type": "Replace",
        "pattern": {
          "String": "۰"
        },
        "content": "0"
      },
      {
        "type": "Replace",
        "pattern": {
          "String": "۱"
        },
        "content": "1"
      },
      {
        "type": "Replace",
        "pattern": {
          "String": "۲"
        },
        "content": "2"
      },
      {
        "type": "Replace",
        "pattern": {
          "String": "۳"
        },
        "content": "3"
      },
      {
        "type": "Replace",
        "pattern": {
          "String": "۴"
        },
        "content": "4"
      },
      {
        "type": "Replace",
        "pattern": {
          "String": "۵"
        },
        "content": "5"
      },
      {
        "type": "Replace",
        "pattern": {
          "String": "۶"
        },
        "content": "6"
      },
      {
        "type": "Replace",
        "pattern": {
          "String": "۷"
        },
        "content": "7"
      },
      {
        "type": "Replace",
        "pattern": {
          "String": "۸"
        },
        "content": "8"
      },
      {
        "type": "Replace",
        "pattern": {
          "String": "۹"
        },
        "content": "9"
      },
      {
        "type": "Replace",
        "pattern": {
          "String": "٠"
        },
        "content": "0"
      },
      {
        "type": "Replace",
        "pattern": {
          "String": "١"
        },
        "content": "1"
      },
      {
        "type": "Replace",
        "pattern": {
          "String": "٢"
        },
        "content": "2"
      },
      {
        "type": "Replace",
        "pattern": {
          "String": "٣"
        },
        "content": "3"
      },
      {
        "type": "Replace",
        "pattern": {
          "String": "٤"
        },
        "content": "4"
      },
      {
        "type": "Replace",
        "pattern": {
          "String": "٥"
        },
        "content": "5"
      },
      {
        "type": "Replace",
        "pattern": {
          "String": "٦"
        },
        "content": "6"
      },
      {
        "type": "Replace",
        "pattern": {
          "String": "٧"
        },
        "content": "7"
      },
      {
        "type": "Replace",
        "pattern": {
          "String": "٨"
        },
        "content": "8"
      },
      {
        "type": "Replace",
        "pattern": {
          "String": "٩"
        },
        "content": "9"
      },
      {
        "type": "Replace",
        "pattern": {
          "Regex": "[ً-ْٰـ]"
        },
        "content": ""
      }
    ]
  },
  "pre_tokenizer": {
    "type": "Metaspace",
    "replacement": "▁",
    "add_prefix_space": true,
    "prepend_scheme": "always"
  },
  "post_processor": null,
  "decoder": {
    "type": "Metaspace",
    "replacement": "▁",
    "add_prefix_space": true,
    "prepend_scheme": "always"
  },
  "model": {
    "type": "BPE",
    "dropout": null,
    "unk_token": "[UNK]",
    "continuing_subword_prefix": null,
    "end_of_word_suffix": null,
    "fuse_unk": false,
    "byte_fallback": false,
    "vocab": {
      "[UNK]": 0,
      "[CLS]": 1,
      "[SEP]": 2,
      "[PAD]": 3,
      "[MASK]": 4,
      "\n": 5,
      "\r": 6,
      "ء": 7,
      "آ": 8,
      "أ": 9,
      "ؤ": 10,
      "إ": 11,
      "ئ": 12,
      "ا": 13,
      "ب": 14,
      "ت": 15,
      "ث": 16,
      "ج": 17,
      "ح": 18,
      "خ": 19,
      "د": 20,
      "ذ": 21,
      "ر": 22,
      "ز": 23,
      "س": 24,
      "ش": 25,
      "ص": 26,
      "ض": 27,
      "ط": 28,
      "ظ": 29,
      "ع": 30,
      "غ": 31,
      "ف": 32,
      "ق": 33,
      "ل": 34,
      "م": 35,
      "ن": 36,
      "ه": 37,
      "و": 38,
      "ٮ": 39,
      "ٱ": 40,
      "ٲ": 41,
      "ٳ": 42,
      "ٴ": 43,
      "ٶ": 44,
      "ٸ": 45,
      "ٹ": 46,
      "ٻ": 47,
      "ټ": 48,
      "ٽ": 49,
      "پ": 50,
      "ٿ": 51,
      "ڀ": 52,
      "ځ": 53,
      "ڂ": 54,
      "ڄ": 55,
      "څ": 56,
      "چ": 57,
      "ڇ": 58,
      "ڈ": 59,
      "ډ": 60,
      "ڊ": 61,
      "ڋ": 62,
      "ڌ": 63,
      "ڎ": 64,
      "ڑ": 65,
      "ڒ": 66,
      "ړ": 67,
      "ڔ": 68,
      "ڕ": 69,
      "ږ": 70,
      "ژ": 71,
      "ڙ": 72,
      "ښ": 73,
      "ڤ": 74,
      "ک": 75,
      "ڪ": 76,
      "ګ": 77,
      "گ": 78,
      "ڰ": 79,
      "ڳ": 80,
      "ڵ": 81,
      "ں": 82,
      "ڼ": 83,
      "ھ": 84,
      "ہ": 85,
      "ۂ": 86,
      "ۃ": 87,
      "ۆ": 88,
      "ۇ": 89,
      "ۉ": 90,
      "ۋ": 91,
      "ی": 92,
      "ۍ": 93,
      "ێ": 94,
      "ې": 95,
      "ۑ": 96,
      "ے": 97,
      "ۓ": 98,
      "ە": 99,
      "ۥ": 100,
      "ۦ": 101,
      "ݜ": 102,
      "ݪ": 103,
      "‌": 104,
      "▁": 105,
      "▁د": 106,
      "▁ا": 107,
      "▁ک": 108,
      "▁پ": 109,
      "▁و": 110,
      "▁م": 111,
      "ان": 112,
      "▁ل": 113,
      "▁په": 114,
      "▁ت": 115,
      "▁او": 116,
      "▁ب": 117,
      "▁ن": 118,
      "▁س": 119,
      "ون": 120,
      "▁چ": 121,
      "▁ه": 122,
      "ار": 123,
      "▁ی": 124,
      "▁ش": 125,
      "▁خ": 126,
      "ال": 127,
      "ول": 128,
      "وی": 129,
      "ور": 130,
      "▁چې": 131,
      "▁کې": 132,
      "▁ر": 133,
      "ای": 134,
      "ست": 135,
      "ری": 136,
      "ره": 137,
      "▁دی": 138,
      "▁له": 139,
      "لی": 140,
      "وا": 141,
      "ړی": 142,
      "ات": 143,
      "▁څ": 144,
      "▁ته": 145,
      "وم": 146,
      "له": 147,
      "▁ور": 148,
      "ام": 149,
      "▁ج": 150,
      "▁دا": 151,
      "▁ز": 152,
      "غه": 153,
      "▁ع": 154,
      "ین": 155,
      "▁ح": 156,
      "▁ځ": 157,
      "▁نه": 158,
      "▁یو": 159,
      "▁هم": 160,
      "یا": 161,
      "▁پر": 162,
      "▁ډ": 163,
      "▁غ": 164,
      "ونو": 165,
      "▁یې": 166,
      "یر": 167,
      "▁تر": 168,
      "▁سره": 169,
      "نی": 170,
      "اس": 171,
      "▁به": 172,
      "دی": 173,
      "▁ال": 174,
      "▁ټ": 175,
      "▁وی": 176,
      "▁ف": 177,
      "ته": 178,
      "لو": 179,
      "انو": 180,
      "ړه": 181,
      "ونه": 182,
      "اره": 183,
      "▁ق": 184,
      "▁دې": 185,
      "اب": 186,
      "دې": 187,
      "▁ګ": 188,
      "▁هغه": 189,
      "▁خپ": 190,
      "▁کی": 191,
      "▁ښ": 192,
      "اک": 193,
      "خه": 194,
      "▁ده": 195,
      "اد": 196,
      "ستان": 197,
      "ند": 198,
      "کی": 199,
      "▁را": 200,
      "▁ام": 201,
      "▁اف": 202,
      "وه": 203,
      "سی": 204,
      "غان": 205,
      "نه": 206,
      "▁شی": 207,
      "▁کړ": 208,
      "▁خو": 209,
      "▁افغان": 210,
      "ولو": 211,
      "رو": 212,
      "ږی": 213,
      "▁کړی": 214,
      "ښت": 215,
      "▁مو": 216,
      "▁ول": 217,
      "ایی": 218,
      "▁شوی": 219,
      "کو": 220,
      "ده": 221,
      "پاره": 222,
      "که": 223,
      "▁وک": 224,
      "خت": 225,
      "لې": 226,
      "▁ان": 227,
      "▁څخه": 228,
      "لا": 229,
      "الی": 230,
      "یم": 231,
      "▁چی": 232,
      "▁لپاره": 233,
      "رې": 234,
      "▁نو": 235,
      "▁شو": 236,
      "▁ص": 237,
      "▁خب": 238,
      "سې": 239,
      "▁مر": 240,
      "▁ط": 241,
      "نې": 242,
      "▁رو": 243,
      "▁من": 244,
      "▁کوی": 245,
      "ید": 246,
      "▁اس": 247,
      "▁که": 248,
      "▁کار": 249,
      "وب": 250,
      "لم": 251,
      "نګ": 252,
      "▁ست": 253,
      "▁مخ": 254,
      "▁ژ": 255,
      "▁دغه": 256,
      "▁افغانستان": 257,
      "کې": 258,
      "▁خپل": 259,
      "ود": 260,
      "وست": 261,
      "▁یا": 262,
      "وړ": 263,
      "▁در": 264,
      "اه": 265,
      "▁بر": 266,
      "تی": 267,
      "از": 268,
      "ېر": 269,
      "اتو": 270,
      "ولی": 271,
      "▁هغ": 272,
      "▁وو": 273,
      "اندې": 274,
      "▁دوی": 275,
      "وری": 276,
      "▁الله": 277,
      "دو": 278,
      "▁ورک": 279,
      "مه": 280,
      "▁نور": 281,
      "▁یوه": 282,
      "▁پی": 283,
      "▁تو": 284,
      "▁سر": 285,
      "▁ټول": 286,
      "شر": 287,
      "▁بل": 288,
      "اری": 289,
      "وال": 290,
      "▁مح": 291,
      "▁مل": 292,
      "انی": 293,
      "▁وا": 294,
      "ریک": 295,
      "▁زی": 296,
      "▁آ": 297,
      "من": 298,
      "▁مع": 299,
      "▁مه": 300,
      "▁لری": 301,
      "▁وړ": 302,
      "▁لی": 303,
      "وند": 304,
      "واد": 305,
      "ونکی": 306,
      "▁کښ": 307,
      "▁هی": 308,
      "▁څه": 309,
      "▁مس": 310,
      "او": 311,
      "▁ورځ": 312,
      "بی": 313,
      "▁زم": 314,
      "نو": 315,
      "▁وه": 316,
      "▁پاک": 317,
      "یت": 318,
      "▁کو": 319,
      "▁هر": 320,
      "▁وروست": 321,
      "▁ما": 322,
      "لام": 323,
      "▁وایی": 324,
      "رم": 325,
      "▁حک": 326,
      "▁خل": 327,
      "ارو": 328,
      "▁بیا": 329,
      "الب": 330,
      "یو": 331,
      "▁چه": 332,
      "▁ووی": 333,
      "کر": 334,
      "▁بې": 335,
      "ړو": 336,
      "▁کال": 337,
      "اع": 338,
      "▁بی": 339,
      "▁ځان": 340,
      "▁څو": 341,
      "▁عم": 342,
      "▁امریک": 343,
      "ګر": 344,
      "▁ای": 345,
      "▁کړې": 346,
      "دل": 347,
      "▁طالب": 348,
      "▁اوس": 349,
      "اف": 350,
      "▁کم": 351,
      "زی": 352,
      "اسو": 353,
      "سم": 354,
      "وره": 355,
      "▁نوم": 356,
      "▁وخت": 357,
      "▁پاکستان": 358,
      "رګ": 359,
      "▁وویل": 360,
      "▁اد": 361,
      "▁کول": 362,
      "▁کوم": 363,
      "▁است": 364,
      "\r\n": 365,
      "▁زیات": 366,
      "انه": 367,
      "به": 368,
      "▁کور": 369,
      "ومت": 370,
      "▁وس": 371,
      "▁وز": 372,
      "وښت": 373,
      "▁سی": 374,
      "مد": 375,
      "▁ډول": 376,
      "ځی": 377,
      "ړې": 378,
      "تیا": 379,
      "▁کیږی": 380,
      "▁شم": 381,
      "▁وروسته": 382,
      "▁هې": 383,
      "▁ار": 384,
      "ئی": 385,
      "▁کر": 386,
      "بر": 387,
      "▁نی": 388,
      "زې": 389,
      "قی": 390,
      "▁اخ": 391,
      "اید": 392,
      "▁شوې": 393,
      "▁می": 394,
      "▁داسې": 395,
      "▁لاس": 396,
      "▁ځای": 397,
      "▁حکومت": 398,
      "▁بری": 399,
      "شت": 400,
      "▁کولو": 401,
      "▁جوړ": 402,
      "▁نا": 403,
      "سان": 404,
      "▁سیم": 405,
      "ګه": 406,
      "▁اړه": 407,
      "ارې": 408,
      "ورې": 409,
      "شی": 410,
      "▁کله": 411,
      "▁پوه": 412,
      "ارت": 413,
      "نیو": 414,
      "ایت": 415,
      "▁تع": 416,
      "▁رس": 417,
      "▁امریکا": 418,
      "▁وکړی": 419,
      "▁اح": 420,
      "▁دو": 421,
      "را": 422,
      "▁بن": 423,
      "▁باید": 424,
      "ینو": 425,
      "▁موږ": 426,
      "ړۍ": 427,
      "▁کښې": 428,
      "وت": 429,
      "▁اع": 430,
      "▁طالبانو": 431,
      "▁کل": 432,
      "▁اړ": 433,
      "▁ځکه": 434,
      "خوا": 435,
      "ټر": 436,
      "▁مشر": 437,
      "▁حال": 438,
      "▁ځوا": 439,
      "▁پې": 440,
      "▁گ": 441,
      "▁لا": 442,
      "▁چا": 443,
      "▁ښه": 444,
      "▁مق": 445,
      "▁لوب": 446,
      "▁مت": 447,
      "دا": 448,
      "نۍ": 449,
      "▁ض": 450,
      "▁مې": 451,
      "ولې": 452,
      "▁خوا": 453,
      "▁با": 454,
      "▁یی": 455,
      "سو": 456,
      "▁پو": 457,
      "▁ورته": 458,
      "نډ": 459,
      "▁اسلام": 460,
      "▁لوی": 461,
      "▁تاسو": 462,
      "▁مش": 463,
      "ابل": 464,
      "▁هېواد": 465,
      "▁دوه": 466,
      "▁مرست": 467,
      "▁ویلی": 468,
      "▁پل": 469,
      "▁جن": 470,
      "▁نورو": 471,
      "اندی": 472,
      "▁وکړ": 473,
      "خو": 474,
      "▁سپ": 475,
      "بو": 476,
      "▁خپلو": 477,
      "▁زه": 478,
      "▁لوم": 479,
      "▁دوا": 480,
      "▁کړه": 481,
      "سره": 482,
      "▁نظ": 483,
      "می": 484,
      "▁دغ": 485,
      "▁عب": 486,
      "وړی": 487,
      "نا": 488,
      "▁ډیر": 489,
      "▁ې": 490,
      "▁توګه": 491,
      "نځ": 492,
      "زو": 493,
      "زه": 494,
      "▁کت": 495,
      "مان": 496,
      "ران": 497,
      "لوم": 498,
      "▁لکه": 499,
      "قت": 500,
      "▁هغوی": 501,
      "وږ": 502,
      "ونکو": 503,
      "▁اص": 504,
      "غلی": 505,
      "ټه": 506,
      "▁غوښت": 507,
      "▁پښت": 508,
      "▁شر": 509,
      "مت": 510,
      "▁لیک": 511,
      "▁وړاندې": 512,
      "اتی": 513,
      "نده": 514,
      "▁وژ": 515,
      "▁ټولو": 516,
      "▁یوا": 517,
      "▁خان": 518,
      "▁ډېر": 519,
      "ادی": 520,
      "ینه": 521,
      "جه": 522,
      "کت": 523,
      "▁ژوند": 524,
      "بې": 525,
      "▁حق": 526,
      "▁ذ": 527,
      "▁خلکو": 528,
      "▁امنی": 529,
      "▁هیواد": 530,
      "رت": 531,
      "▁برخه": 532,
      "▁باندې": 533,
      "▁علی": 534,
      "په": 535,
      "▁یاد": 536,
      "▁کېږی": 537,
      "▁پرې": 538,
      "▁ښک": 539,
      "ونږ": 540,
      "▁سیا": 541,
      "شن": 542,
      "▁ډی": 543,
      "▁وال": 544,
      "ینې": 545,
      "اسی": 546,
      "▁ملی": 547,
      "▁ات": 548,
      "▁ځواک": 549,
      "▁هغو": 550,
      "ونډ": 551,
      "▁منځ": 552,
      "دال": 553,
      "▁ث": 554,
      "▁سو": 555,
      "▁ډې": 556,
      "▁خا": 557,
      "خی": 558,
      "▁رات": 559,
      "▁ښځ": 560,
      "اند": 561,
      "لته": 562,
      "▁سم": 563,
      "▁ئ": 564,
      "▁دم": 565,
      "▁بد": 566,
      "وله": 567,
      "▁هو": 568,
      "با": 569,
      "بار": 570,
      "فی": 571,
      "▁پرو": 572,
      "▁وې": 573,
      "▁محمد": 574,
      "▁نړی": 575,
      "سټ": 576,
      "▁نن": 577,
      "▁تل": 578,
      "▁پا": 579,
      "▁کابل": 580,
      "نګه": 581,
      "رب": 582,
      "تون": 583,
      "▁برید": 584,
      "پی": 585,
      "▁چار": 586,
      "▁خبر": 587,
      "▁غوا": 588,
      "▁میا": 589,
      "▁کس": 590,
      "▁خبره": 591,
      "ښې": 592,
      "▁بهر": 593,
      "امه": 594,
      "▁مج": 595,
      "▁جګ": 596,
      "▁پای": 597,
      "▁پیل": 598,
      "▁پورې": 599,
      "▁نړیوال": 600,
      "▁خپله": 601,
      "امل": 602,
      "تر": 603,
      "▁دن": 604,
      "اله": 605,
      "▁ویل": 606,
      "▁دول": 607,
      "اج": 608,
      "▁لر": 609,
      "▁لو": 610,
      "▁ولایت": 611,
      "▁تی": 612,
      "وان": 613,
      "▁تې": 614,
      "کل": 615,
      "▁خد": 616,
      "بت": 617,
      "▁ګډ": 618,
      "▁وزیر": 619,
      "▁از": 620,
      "اده": 621,
      "ونې": 622,
      "▁ښار": 623,
      "▁زموږ": 624,
      "▁ری": 625,
      "▁یوې": 626,
      "اح": 627,
      "ونی": 628,
      "▁اج": 629,
      "فر": 630,
      "▁ولسم": 631,
      "▁څوک": 632,
      "▁ټاک": 633,
      "▁معلوم": 634,
      "▁وین": 635,
      "▁چارو": 636,
      "دار": 637,
      "▁ماش": 638,
      "رف": 639,
      "▁سل": 640,
      "ورا": 641,
      "▁شول": 642,
      "▁خبرې": 643,
      "تونو": 644,
      "ازه": 645,
      "▁کا": 646,
      "▁فر": 647,
      "لمان": 648,
      "ورو": 649,
      "▁وکړه": 650,
      "▁یع": 651,
      "ښه": 652,
      "اتې": 653,
      "▁ګر": 654,
      "▁دد": 655,
      "▁ولسمشر": 656,
      "▁میاشت": 657,
      "▁چاروا": 658,
      "▁زما": 659,
      "سه": 660,
      "غی": 661,
      "▁لومړی": 662,
      "▁خلک": 663,
      "مو": 664,
      "▁شه": 665,
      "▁فی": 666,
      "▁هیڅ": 667,
      "▁ولس": 668,
      "▁اب": 669,
      "ومره": 670,
      "▁نړۍ": 671,
      "▁بش": 672,
      "▁وزارت": 673,
      "▁ئې": 674,
      "▁تړ": 675,
      "▁اړی": 676,
      "قه": 677,
      "▁نوی": 678,
      "▁شوه": 679,
      "▁ستون": 680,
      "▁مرک": 681,
      "▁دف": 682,
      "اته": 683,
      "▁هغې": 684,
      "مې": 685,
      "ائ": 686,
      "▁مط": 687,
      "▁ایر": 688,
      "▁هڅ": 689,
      "▁لم": 690,
      "پور": 691,
      "▁لید": 692,
      "▁دے": 693,
      "▁درې": 694,
      "▁ددې": 695,
      "▁اسلامی": 696,
      "▁کښی": 697,
      "▁زړه": 698,
      "▁انت": 699,
      "اسه": 700,
      "▁خبری": 701,
      "صی": 702,
      "در": 703,
      "▁ورکړی": 704,
      "ینی": 705,
      "عی": 706,
      "مل": 707,
      "ښو": 708,
      "ټی": 709,
      "▁ماشوم": 710,
      "▁کتاب": 711,
      "سته": 712,
      "ټو": 713,
      "لان": 714,
      "▁عبدال": 715,
      "کار": 716,
      "این": 717,
      "ورت": 718,
      "▁قوم": 719,
      "▁وای": 720,
      "▁سیاسی": 721,
      "ټې": 722,
      "▁وګ": 723,
      "▁سولې": 724,
      "▁کړئ": 725,
      "ڼه": 726,
      "▁جم": 727,
      "▁کسان": 728,
      "▁مونږ": 729,
      "▁خلا": 730,
      "▁ترڅ": 731,
      "ضی": 732,
      "پا": 733,
      "▁زده": 734,
      "▁هند": 735,
      "▁غونډ": 736,
      "▁کړل": 737,
      "▁فع": 738,
      "▁سیمه": 739,
      "دلی": 740,
      "▁نش": 741,
      "اسې": 742,
      "ښی": 743,
      "طر": 744,
      "▁یوازې": 745,
      "▁خبرو": 746,
      "▁انسان": 747,
      "▁دری": 748,
      "▁قان": 749,
      "▁لارې": 750,
      "▁رام": 751,
      "انې": 752,
      "کن": 753,
      "▁څل": 754,
      "▁مهال": 755,
      "▁کولی": 756,
      "▁تح": 757,
      "▁اک": 758,
      "خپ": 759,
      "▁ولی": 760,
      "▁مال": 761,
      "▁ځانګ": 762,
      "▁تف": 763,
      "▁پید": 764,
      "تم": 765,
      "▁امله": 766,
      "▁ښا": 767,
      "▁روغ": 768,
      "عه": 769,
      "اء": 770,
      "▁لاندې": 771,
      "▁علیه": 772,
      "▁کړو": 773,
      "▁عملی": 774,
      "▁واک": 775,
      "▁پولی": 776,
      "▁تن": 777,
      "▁ځواکونو": 778,
      "▁لوړ": 779,
      "وس": 780,
      "▁نوموړی": 781,
      "▁لږ": 782,
      "▁داسی": 783,
      "▁کلی": 784,
      "▁مخې": 785,
      "حی": 786,
      "▁خپلې": 787,
      "▁ظ": 788,
      "▁علم": 789,
      "▁شمېر": 790,
      "▁مص": 791,
      "▁شاه": 792,
      "▁سات": 793,
      "▁ورکړ": 794,
      "▁ونه": 795,
      "▁دع": 796,
      "▁تور": 797,
      "▁وم": 798,
      "ګرو": 799,
      "جی": 800,
      "▁مذ": 801,
      "▁غواړی": 802,
      "▁مرسته": 803,
      "▁ترسره": 804,
      "▁شپ": 805,
      "چه": 806,
      "یست": 807,
      "▁دغو": 808,
      "▁پور": 809,
      "▁پاتې": 810,
      "▁ستاسو": 811,
      "▁تاری": 812,
      "▁وت": 813,
      "▁أ": 814,
      "الو": 815,
      "▁وژل": 816,
      "▁رسول": 817,
      "▁بدل": 818,
      "▁ایران": 819,
      "▁امنیتی": 820,
      "▁کن": 821,
      "▁زیاته": 822,
      "▁وینا": 823,
      "▁اه": 824,
      "وندی": 825,
      "▁اقت": 826,
      "▁لار": 827,
      "▁ښو": 828,
      "▁چین": 829,
      "لس": 830,
      "▁پاره": 831,
      "لاسه": 832,
      "▁اخیست": 833,
      "▁فکر": 834,
      "▁څرګ": 835,
      "بل": 836,
      "▁قر": 837,
      "▁بو": 838,
      "▁اش": 839,
      "▁سه": 840,
      "▁حم": 841,
      "▁غوره": 842,
      "▁وسله": 843,
      "▁ښاغلی": 844,
      "▁پرم": 845,
      "خې": 846,
      "▁حس": 847,
      "ینګ": 848,
      "وو": 849,
      "▁مد": 850,
      "▁اند": 851,
      "▁ترلاسه": 852,
      "فت": 853,
      "▁نې": 854,
      "ومی": 855,
      "زم": 856,
      "قو": 857,
      "▁دلته": 858,
      "چې": 859,
      "▁راتل": 860,
      "▁مخکې": 861,
      "▁پیدا": 862,
      "▁کسانو": 863,
      "▁دولت": 864,
      "▁جنګ": 865,
      "▁ګڼ": 866,
      "امی": 867,
      "اص": 868,
      "کا": 869,
      "▁اخت": 870,
      "▁سخت": 871,
      "▁پنځ": 872,
      "▁تا": 873,
      "انګ": 874,
      "▁درلو": 875,
      "▁اقتص": 876,
      "▁ملات": 877,
      "خلی": 878,
      "مر": 879,
      "▁همدې": 880,
      "▁نس": 881,
      "▁جه": 882,
      "▁جل": 883,
      "وې": 884,
      "▁نارو": 885,
      "کله": 886,
      "▁ولا": 887,
      "▁مسلمان": 888,
      "فا": 889,
      "▁خر": 890,
      "▁سوی": 891,
      "عت": 892,
      "ینځ": 893,
      "▁یم": 894,
      "کس": 895,
      "منځ": 896,
      "▁اړتیا": 897,
      "ونکې": 898,
      "ګری": 899,
      "▁سب": 900,
      "▁ونی": 901,
      "▁خی": 902,
      "▁ډلې": 903,
      "▁ورکوی": 904,
      "▁مرکز": 905,
      "▁راپور": 906,
      "▁شخ": 907,
      "▁حض": 908,
      "قل": 909,
      "▁ځم": 910,
      "▁جو": 911,
      "▁تش": 912,
      "▁راغلی": 913,
      "▁ئی": 914,
      "▁تعالی": 915,
      "▁ټی": 916,
      "▁جمه": 917,
      "▁حل": 918,
      "▁پن": 919,
      "▁ځل": 920,
      "ډیو": 921,
      "▁لګ": 922,
      "عیت": 923,
      "▁باندی": 924,
      "▁پوره": 925,
      "▁لاره": 926,
      "▁هد": 927,
      "▁ارز": 928,
      "▁پرا": 929,
      "▁بهرنیو": 930,
      "▁ؤ": 931,
      "▁سړی": 932,
      "غې": 933,
      "▁اق": 934,
      "چا": 935,
      "▁رح": 936,
      "▁شان": 937,
      "والۍ": 938,
      "▁پوښت": 939,
      "▁روان": 940,
      "▁اور": 941,
      "▁لخوا": 942,
      "گه": 943,
      "▁ځینې": 944,
      "▁مبار": 945,
      "▁لوری": 946,
      "▁ورسره": 947,
      "ایل": 948,
      "▁شته": 949,
      "فه": 950,
      "▁پخو": 951,
      "▁خوش": 952,
      "غا": 953,
      "والی": 954,
      "▁مث": 955,
      "▁اوږ": 956,
      "▁تره": 957,
      "▁ود": 958,
      "ایه": 959,
      "▁اول": 960,
      "▁پرته": 961,
      "▁ملاتړ": 962,
      "▁څلور": 963,
      "▁غیر": 964,
      "▁ملا": 965,
      "▁ورځې": 966,
      "▁څنګه": 967,
      "لیل": 968,
      "ځې": 969,
      "▁ترمنځ": 970,
      "ابر": 971,
      "▁نظر": 972,
      "الم": 973,
      "▁غا": 974,
      "ستی": 975,
      "▁بند": 976,
      "▁رامنځ": 977,
      "▁پوځی": 978,
      "▁تص": 979,
      "▁ستر": 980,
      "▁تج": 981,
      "▁الم": 982,
      "▁قانون": 983,
      "▁ضد": 984,
      "ښود": 985,
      "▁لې": 986,
      "▁دواړو": 987,
      "▁کب": 988,
      "▁تیر": 989,
      "▁امریکایی": 990,
      "▁امنیت": 991,
      "▁پرمخت": 992,
      "▁مور": 993,
      "ازی": 994,
      "▁اود": 995,
      "▁بندی": 996,
      "▁همدا": 997,
      "وع": 998,
      "▁کولای": 999,
      "▁مګر": 1000,
      "ودا": 1001,
      "▁غړی": 1002,
      "▁غنی": 1003,
      "▁فرم": 1004,
      "▁شئ": 1005,
      "▁اعلان": 1006,
      "▁پس": 1007,
      "▁اې": 1008,
      "▁متح": 1009,
      "▁حالت": 1010,
      "▁غوښتنه": 1011,
      "▁پری": 1012,
      "▁ځینو": 1013,
      "▁بح": 1014,
      "▁پښتو": 1015,
      "▁پکې": 1016,
      "▁عمل": 1017,
      "▁طالبان": 1018,
      "اډ": 1019,
      "▁موج": 1020,
      "کان": 1021,
      "▁باب": 1022,
      "پو": 1023,
      "▁وغ": 1024,
      "▁ادارې": 1025,
      "▁سیمو": 1026,
      "▁حکم": 1027,
      "▁پورته": 1028,
      "▁شع": 1029,
      "▁ځوان": 1030,
      "▁ښځو": 1031,
      "▁سفر": 1032,
      "▁ګډون": 1033,
      "▁راغ": 1034,
      "▁مست": 1035,
      "▁تم": 1036,
      "▁پام": 1037,
      "▁روسی": 1038,
      "▁هلته": 1039,
      "▁بیان": 1040,
      "▁څر": 1041,
      "▁وش": 1042,
      "افی": 1043,
      "▁کورنۍ": 1044,
      "فو": 1045,
      "▁تق": 1046,
      "▁میر": 1047,
      "▁ډاک": 1048,
      "▁شا": 1049,
      "▁ستا": 1050,
      "ندی": 1051,
      "▁عمر": 1052,
      "رح": 1053,
      "▁نیم": 1054,
      "ونځ": 1055,
      "▁چارواکو": 1056,
      "انۍ": 1057,
      "توب": 1058,
      "▁کان": 1059,
      "▁ټولنې": 1060,
      "▁لوبډ": 1061,
      "دای": 1062,
      "▁سیمې": 1063,
      "▁رسی": 1064,
      "والو": 1065,
      "لیک": 1066,
      "گر": 1067,
      "ڼې": 1068,
      "▁کلونو": 1069,
      "▁ضر": 1070,
      "▁ډېره": 1071,
      "▁څې": 1072,
      "▁یعنی": 1073,
      "▁پخوانی": 1074,
      "▁ګو": 1075,
      "▁هېوادونو": 1076,
      "تو": 1077,
      "▁وکړئ": 1078,
      "هی": 1079,
      "پر": 1080,
      "▁تنه": 1081,
      "کټ": 1082,
      "▁بشپ": 1083,
      "▁شری": 1084,
      "▁پوهن": 1085,
      "▁بنسټ": 1086,
      "شه": 1087,
      "▁پار": 1088,
      "▁غو": 1089,
      "دم": 1090,
      "▁ولری": 1091,
      "▁دپاره": 1092,
      "عم": 1093,
      "▁سترګ": 1094,
      "▁چارواکی": 1095,
      "▁غر": 1096,
      "امو": 1097,
      "▁بلکې": 1098,
      "▁خدای": 1099,
      "▁ره": 1100,
      "▁مخال": 1101,
      "▁وړاندی": 1102,
      "▁والی": 1103,
      "▁ګوند": 1104,
      "▁همد": 1105,
      "چی": 1106,
      "زا": 1107,
      "▁شورا": 1108,
      "▁بال": 1109,
      "▁هڅه": 1110,
      "دونکی": 1111,
      "▁سودا": 1112,
      "لاح": 1113,
      "▁راز": 1114,
      "▁ولې": 1115,
      "▁موا": 1116,
      "▁غږ": 1117,
      "▁حر": 1118,
      "▁تاریخ": 1119,
      "خل": 1120,
      "▁لاسه": 1121,
      "ستل": 1122,
      "▁جګړې": 1123,
      "▁دفاع": 1124,
      "یز": 1125,
      "▁اقتصادی": 1126,
      "▁پوځ": 1127,
      "یرې": 1128,
      "دین": 1129,
      "▁دومره": 1130,
      "▁ریا": 1131,
      "▁پخپ": 1132,
      "ریم": 1133,
      "رال": 1134,
      "▁شک": 1135,
      "▁احمد": 1136,
      "یږی": 1137,
      "▁مالی": 1138,
      "انس": 1139,
      "▁ولسوالۍ": 1140,
      "▁بیر": 1141,
      "▁ځواب": 1142,
      "▁لس": 1143,
      "▁ایال": 1144,
      "▁جګړه": 1145,
      "خاب": 1146,
      "▁څرګند": 1147,
      "▁مم": 1148,
      "▁دښ": 1149,
      "▁زره": 1150,
      "جې": 1151,
      "▁روز": 1152,
      "▁ارو": 1153,
      "▁تب": 1154,
      "امخ": 1155,
      "▁بله": 1156,
      "▁مهم": 1157,
      "▁سن": 1158,
      "▁والو": 1159,
      "عو": 1160,
      "کړه": 1161,
      "لاب": 1162,
      "▁ناروغ": 1163,
      "▁حضرت": 1164,
      "▁تېر": 1165,
      "▁ټولنی": 1166,
      "▁راځی": 1167,
      "▁توپ": 1168,
      "▁نشته": 1169,
      "▁موض": 1170,
      "▁وار": 1171,
      "وک": 1172,
      "سیر": 1173,
      "▁اوسه": 1174,
      "▁مخه": 1175,
      "ژی": 1176,
      "▁دپ": 1177,
      "ادت": 1178,
      "▁هره": 1179,
      "غو": 1180,
      "ظم": 1181,
      "دلو": 1182,
      "▁اوبو": 1183,
      "▁انتخاب": 1184,
      "رین": 1185,
      "▁کډ": 1186,
      "▁رسنیو": 1187,
      "▁دل": 1188,
      "▁غور": 1189,
      "▁راک": 1190,
      "ندهار": 1191,
      "ېږی": 1192,
      "▁ون": 1193,
      "▁ترڅو": 1194,
      "▁قب": 1195,
      "اعت": 1196,
      "▁شمیر": 1197,
      "▁ملګرو": 1198,
      "▁صلی": 1199,
      "▁دوو": 1200,
      "▁ویاند": 1201,
      "ژند": 1202,
      "الیو": 1203,
      "ږدې": 1204,
      "▁شن": 1205,
      "▁میلی": 1206,
      "▁کوو": 1207,
      "▁ځانګړی": 1208,
      "▁حقی": 1209,
      "▁ښکاره": 1210,
      "▁باور": 1211,
      "▁دوام": 1212,
      "▁پلار": 1213,
      "تل": 1214,
      "▁ترې": 1215,
      "▁ھ": 1216,
      "▁مار": 1217,
      "ما": 1218,
      "▁الس": 1219,
      "▁ایم": 1220,
      "یس": 1221,
      "▁کمپ": 1222,
      "الۍ": 1223,
      "▁موضوع": 1224,
      "▁بار": 1225,
      "▁ورکول": 1226,
      "▁اچ": 1227,
      "▁رسې": 1228,
      "▁کېدو": 1229,
      "ئیس": 1230,
      "▁ټینګ": 1231,
      "▁خورا": 1232,
      "▁پدې": 1233,
      "ادر": 1234,
      "▁راوړ": 1235,
      "▁پولیسو": 1236,
      "▁فعالی": 1237,
      "▁واق": 1238,
      "واب": 1239,
      "▁یه": 1240,
      "▁نج": 1241,
      "▁لور": 1242,
      "ځه": 1243,
      "▁زر": 1244,
      "صل": 1245,
      "▁شتون": 1246,
      "▁کاله": 1247,
      "▁تاسې": 1248,
      "▁ساز": 1249,
      "حد": 1250,
      "ثر": 1251,
      "▁وض": 1252,
      "ګی": 1253,
      "لب": 1254,
      "واک": 1255,
      "▁ترکی": 1256,
      "خته": 1257,
      "▁مخت": 1258,
      "▁څار": 1259,
      "▁همدار": 1260,
      "▁پښتون": 1261,
      "صو": 1262,
      "▁لنډ": 1263,
      "▁امام": 1264,
      "احب": 1265,
      "▁زمونږ": 1266,
      "▁ګټه": 1267,
      "▁جرګ": 1268,
      "▁دغې": 1269,
      "▁تفسیر": 1270,
      "▁عر": 1271,
      "طن": 1272,
      "تونه": 1273,
      "▁پوری": 1274,
      "▁غونډه": 1275,
      "جن": 1276,
      "▁ولاړ": 1277,
      "▁دس": 1278,
      "▁احس": 1279,
      "▁مشرانو": 1280,
      "▁خبریال": 1281,
      "▁خور": 1282,
      "شنبې": 1283,
      "▁دواړه": 1284,
      "▁کومه": 1285,
      "دام": 1286,
      "▁باز": 1287,
      "پل": 1288,
      "اش": 1289,
      "▁نشی": 1290,
      "ځای": 1291,
      "طه": 1292,
      "▁ننګ": 1293,
      "لیم": 1294,
      "▁لیکو": 1295,
      "▁هیوادونو": 1296,
      "▁کمې": 1297,
      "▁کورنیو": 1298,
      "انا": 1299,
      "▁پوهنتون": 1300,
      "▁نم": 1301,
      "▁تخ": 1302,
      "▁ټاکنو": 1303,
      "آن": 1304,
      "▁ورو": 1305,
      "ګل": 1306,
      "▁پټ": 1307,
      "▁چل": 1308,
      "▁هېڅ": 1309,
      "▁کبله": 1310,
      "▁څېړ": 1311,
      "اوی": 1312,
      "▁رامنځته": 1313,
      "▁سې": 1314,
      "▁نظام": 1315,
      "▁ارزښت": 1316,
      "▁شپږ": 1317,
      "پې": 1318,
      "▁پیغ": 1319,
      "▁نامه": 1320,
      "نیوی": 1321,
      "▁وشی": 1322,
      "▁پلا": 1323,
      "یل": 1324,
      "▁رب": 1325,
      "عې": 1326,
      "▁عس": 1327,
      "▁تاسی": 1328,
      "▁زور": 1329,
      "ږدی": 1330,
      "نگ": 1331,
      "یال": 1332,
      "▁داع": 1333,
      "▁دین": 1334,
      "▁نار": 1335,
      "▁ډال": 1336,
      "▁خلاص": 1337,
      "▁سف": 1338,
      "▁څومره": 1339,
      "پوه": 1340,
      "▁پلان": 1341,
      "▁نف": 1342,
      "▁سا": 1343,
      "▁خدمت": 1344,
      "▁تاو": 1345,
      "▁وسلم": 1346,
      "ابه": 1347,
      "▁اؤ": 1348,
      "▁بشری": 1349,
      "▁شرکت": 1350,
      "کم": 1351,
      "▁افغانانو": 1352,
      "▁ډیری": 1353,
      "حه": 1354,
      "▁شاو": 1355,
      "▁چمت": 1356,
      "▁پک": 1357,
      "▁ملکی": 1358,
      "▁کچه": 1359,
      "یه": 1360,
      "▁وسی": 1361,
      "لت": 1362,
      "▁لامل": 1363,
      "▁کندهار": 1364,
      "▁درو": 1365,
      "▁مرګ": 1366,
      "▁کوونکی": 1367,
      "▁وکړو": 1368,
      "▁الق": 1369,
      "▁خلاف": 1370,
      "▁ټو": 1371,
      "▁ریاست": 1372,
      "▁پیر": 1373,
      "▁ډاکټر": 1374,
      "▁دئ": 1375,
      "▁هوایی": 1376,
      "▁صاحب": 1377,
      "▁معلومات": 1378,
      "▁رسم": 1379,
      "غل": 1380,
      "▁زیان": 1381,
      "▁متحده": 1382,
      "▁رئیس": 1383,
      "▁احساس": 1384,
      "ګرام": 1385,
      "▁نیول": 1386,
      "ړل": 1387,
      "▁یر": 1388,
      "سیون": 1389,
      "▁لیکلی": 1390,
      "▁هکله": 1391,
      "ګرۍ": 1392,
      "▁ملک": 1393,
      "▁سک": 1394,
      "▁قد": 1395,
      "▁پرمختګ": 1396,
      "▁کش": 1397,
      "▁راډیو": 1398,
      "▁شویو": 1399,
      "▁مینه": 1400,
      "▁کمی": 1401,
      "▁ملتونو": 1402,
      "▁ټپی": 1403,
      "▁ژبه": 1404,
      "▁وب": 1405,
      "▁میاشتې": 1406,
      "▁هدف": 1407,
      "▁ګوا": 1408,
      "ټن": 1409,
      "▁سرچ": 1410,
      "لاف": 1411,
      "▁اجازه": 1412,
      "واز": 1413,
      "ونا": 1414,
      "▁خوندی": 1415,
      "▁راهی": 1416,
      "▁فار": 1417,
      "▁لوبغا": 1418,
      "▁رد": 1419,
      "▁الع": 1420,
      "زاد": 1421,
      "▁جرم": 1422,
      "شو": 1423,
      "▁دی\r\n": 1424,
      "ندان": 1425,
      "▁پنج": 1426,
      "▁عام": 1427,
      "▁اصلی": 1428,
      "▁سیاست": 1429,
      "▁ډله": 1430,
      "ظیم": 1431,
      "▁شامل": 1432,
      "▁مؤ": 1433,
      "▁کیدو": 1434,
      "▁عبدالله": 1435,
      "▁صورت": 1436,
      "▁ماشومانو": 1437,
      "▁تړون": 1438,
      "▁شاوخوا": 1439,
      "▁موخه": 1440,
      "ډی": 1441,
      "▁تول": 1442,
      "▁وروستیو": 1443,
      "طان": 1444,
      "▁ښځې": 1445,
      "▁موټر": 1446,
      "▁جوړه": 1447,
      "▁تک": 1448,
      "▁فو": 1449,
      "عا": 1450,
      "▁منځه": 1451,
      "▁ګل": 1452,
      "▁یعنې": 1453,
      "▁کوچ": 1454,
      "سر": 1455,
      "▁پروژ": 1456,
      "▁بدلون": 1457,
      "انک": 1458,
      "▁خوب": 1459,
      "ندو": 1460,
      "▁نق": 1461,
      "▁ورځو": 1462,
      "ایې": 1463,
      "▁ورکړل": 1464,
      "▁موند": 1465,
      "▁وج": 1466,
      "▁حی": 1467,
      "▁لرې": 1468,
      "▁لړ": 1469,
      "▁تېره": 1470,
      "▁الب": 1471,
      "▁الوت": 1472,
      "▁لوست": 1473,
      "▁سازمان": 1474,
      "▁وف": 1475,
      "▁ولسی": 1476,
      "▁دنیا": 1477,
      "▁امر": 1478,
      "▁حقیقت": 1479,
      "▁وجه": 1480,
      "▁ړ": 1481,
      "▁ژر": 1482,
      "▁حج": 1483,
      "▁طبی": 1484,
      "ناه": 1485,
      "▁اعت": 1486,
      "الله": 1487,
      "▁مف": 1488,
      "▁دک": 1489,
      "▁جمهور": 1490,
      "▁نږدې": 1491,
      "▁سوری": 1492,
      "▁الح": 1493,
      "▁شاع": 1494,
      "شار": 1495,
      "▁مختل": 1496,
      "▁مز": 1497,
      "▁پیا": 1498,
      "▁برابر": 1499,
      "▁مشه": 1500,
      "قې": 1501,
      "▁ټوله": 1502,
      "▁داعش": 1503,
      "تې": 1504,
      "▁بحث": 1505,
      "▁سبب": 1506,
      "▁خط": 1507,
      "یار": 1508,
      "▁بیرته": 1509,
      "▁کاوه": 1510,
      "▁ستونزو": 1511,
      "▁کوئ": 1512,
      "تا": 1513,
      "▁ډیره": 1514,
      "▁ښی": 1515,
      "▁زوی": 1516,
      "▁قا": 1517,
      "اهد": 1518,
      "▁دار": 1519,
      "▁شپه": 1520,
      "▁غل": 1521,
      "▁مرستیال": 1522,
      "الې": 1523,
      "▁مخنیوی": 1524,
      "څه": 1525,
      "▁جوړولو": 1526,
      "▁ووژ": 1527,
      "▁کېدل": 1528,
      "▁تازه": 1529,
      "▁اساس": 1530,
      "رانس": 1531,
      "▁دفتر": 1532,
      "▁ټولنه": 1533,
      "▁هیله": 1534,
      "▁درلود": 1535,
      "▁محک": 1536,
      "▁ښایی": 1537,
      "لۍ": 1538,
      "▁ایا": 1539,
      "▁مخامخ": 1540,
      "▁روسیې": 1541,
      "▁لویه": 1542,
      "▁سند": 1543,
      "▁اباد": 1544,
      "▁مول": 1545,
      "رهار": 1546,
      "▁سوه": 1547,
      "ږد": 1548,
      "یب": 1549,
      "▁بشپړ": 1550,
      "دیث": 1551,
      "▁تېرو": 1552,
      "▁خطر": 1553,
      "▁اپ": 1554,
      "ریت": 1555,
      "▁جام": 1556,
      "▁باد": 1557,
      "▁حقونو": 1558,
      "ډو": 1559,
      "▁اسم": 1560,
      "▁انس": 1561,
      "داد": 1562,
      "▁استعم": 1563,
      "▁ګټ": 1564,
      "▁پاکستانی": 1565,
      "▁علا": 1566,
      "▁پوښتنه": 1567,
      "▁هن": 1568,
      "▁دښمن": 1569,
      "▁ښود": 1570,
      "▁چمتو": 1571,
      "▁دوست": 1572,
      "ټول": 1573,
      "▁خپر": 1574,
      "▁اط": 1575,
      "صر": 1576,
      "▁ټرم": 1577,
      "▁موجود": 1578,
      "▁نام": 1579,
      "کاری": 1580,
      "▁راتلونکی": 1581,
      "کړی": 1582,
      "شاه": 1583,
      "▁مرستې": 1584,
      "▁استاد": 1585,
      "▁چاود": 1586,
      "کرو": 1587,
      "▁مناس": 1588,
      "▁اوسی": 1589,
      "▁مذه": 1590,
      "▁دب": 1591,
      "▁یک": 1592,
      "▁محص": 1593,
      "▁رنګ": 1594,
      "▁اوبه": 1595,
      "▁پړ": 1596,
      "▁غز": 1597,
      "▁طرف": 1598,
      "▁مینځ": 1599,
      "لک": 1600,
      "▁ذکر": 1601,
      "▁راو": 1602,
      "▁بازار": 1603,
      "▁جنرال": 1604,
      "ڼو": 1605,
      "▁ښکاری": 1606,
      "▁راهیسې": 1607,
      "▁ټکی": 1608,
      "▁پېښې": 1609,
      "▁اشر": 1610,
      "▁مسلمانانو": 1611,
      "▁فض": 1612,
      "▁نیو": 1613,
      "▁سین": 1614,
      "منو": 1615,
      "▁کرکټ": 1616,
      "▁اړیکو": 1617,
      "▁دولتی": 1618,
      "حت": 1619,
      "▁ستونزې": 1620,
      "بات": 1621,
      "▁تولید": 1622,
      "▁اخلی": 1623,
      "▁واخلی": 1624,
      "▁پنځه": 1625,
      "▁شعر": 1626,
      "▁غونډې": 1627,
      "▁ټرمپ": 1628,
      "▁نړیوالو": 1629,
      "▁شب": 1630,
      "ږو": 1631,
      "▁دام": 1632,
      "▁فت": 1633,
      "▁قرآن": 1634,
      "▁بم": 1635,
      "ګو": 1636,
      "▁ورکولو": 1637,
      "▁لومړۍ": 1638,
      "▁چو": 1639,
      "▁روغتیا": 1640,
      "▁امیر": 1641,
      "▁وکړې": 1642,
      "▁لاری": 1643,
      "صه": 1644,
      "▁پروګرام": 1645,
      "▁جمهوری": 1646,
      "▁روښ": 1647,
      "▁ورځپا": 1648,
      "▁لوبډلې": 1649,
      "▁نل": 1650,
      "▁غاړه": 1651,
      "▁قرب": 1652,
      "▁کوله": 1653,
      "تان": 1654,
      "لق": 1655,
      "▁جان": 1656,
      "▁بدن": 1657,
      "▁برخو": 1658,
      "▁پخوا": 1659,
      "اض": 1660,
      "▁پسې": 1661,
      "بال": 1662,
      "▁السلام": 1663,
      "یدو": 1664,
      "▁نر": 1665,
      "کیل": 1666,
      "سن": 1667,
      "▁څی": 1668,
      "▁اوسې": 1669,
      "▁ډاډ": 1670,
      "▁اندازه": 1671,
      "ډه": 1672,
      "▁ویر": 1673,
      "▁ثاب": 1674,
      "▁اله": 1675,
      "▁صن": 1676,
      "▁فس": 1677,
      "▁معنی": 1678,
      "▁مقام": 1679,
      "▁لیدل": 1680,
      "▁جوړې": 1681,
      "▁مام": 1682,
      "▁خوښ": 1683,
      "▁دت": 1684,
      "روع": 1685,
      "▁بهیر": 1686,
      "▁ډېرې": 1687,
      "▁طری": 1688,
      "▁شخص": 1689,
      "▁مسو": 1690,
      "▁ملګری": 1691,
      "▁پخپله": 1692,
      "▁یون": 1693,
      "▁اوب": 1694,
      "▁ځی": 1695,
      "▁بریالی": 1696,
      "▁بس": 1697,
      "▁لمونځ": 1698,
      "▁ناو": 1699,
      "▁دده": 1700,
      "▁ټولې": 1701,
      "▁فشار": 1702,
      "▁عمومی": 1703,
      "طی": 1704,
      "▁مخالف": 1705,
      "مبر": 1706,
      "▁بلو": 1707,
      "▁بېر": 1708,
      "▁قی": 1709,
      "▁ووژل": 1710,
      "▁لومړ": 1711,
      "جو": 1712,
      "▁شې": 1713,
      "▁ژوب": 1714,
      "▁ورس": 1715,
      "▁صحی": 1716,
      "ورۍ": 1717,
      "▁عالم": 1718,
      "▁مات": 1719,
      "▁زیاتوی": 1720,
      "اق": 1721,
      "▁سوله": 1722,
      "لمه": 1723,
      "▁مغ": 1724,
      "▁تجر": 1725,
      "▁موق": 1726,
      "▁مسئ": 1727,
      "▁بخ": 1728,
      "▁ټاکل": 1729,
      "ئیل": 1730,
      "▁ناست": 1731,
      "▁اداره": 1732,
      "▁لوبې": 1733,
      "▁درمل": 1734,
      "امت": 1735,
      "ورئ": 1736,
      "ریف": 1737,
      "▁افغانان": 1738,
      "▁دلیل": 1739,
      "▁نتی": 1740,
      "▁ملت": 1741,
      "▁پښتنو": 1742,
      "▁جرګې": 1743,
      "▁اوری": 1744,
      "▁بلکه": 1745,
      "▁لوبه": 1746,
      "تری": 1747,
      "ېل": 1748,
      "وبی": 1749,
      "▁ننګرهار": 1750,
      "ښور": 1751,
      "▁اشرف": 1752,
      "سل": 1753,
      "▁سړ": 1754,
      "▁همدارنګه": 1755,
      "▁پلی": 1756,
      "▁نز": 1757,
      "ډې": 1758,
      "▁اوه": 1759,
      "▁مړی": 1760,
      "▁وړی": 1761,
      "▁ژبا": 1762,
      "▁ذه": 1763,
      "▁تد": 1764,
      "▁پرت": 1765,
      "▁بع": 1766,
      "▁خوشح": 1767,
      "▁عن": 1768,
      "▁ورسی": 1769,
      "▁فره": 1770,
      "▁رښت": 1771,
      "▁وړاندیز": 1772,
      "▁حدیث": 1773,
      "▁ماشومان": 1774,
      "▁لیکوال": 1775,
      "▁ترم": 1776,
      "▁ګرځ": 1777,
      "▁ے": 1778,
      "▁انګ": 1779,
      "▁نوې": 1780,
      "▁نص": 1781,
      "بری": 1782,
      "طو": 1783,
      "▁دروا": 1784,
      "▁اړوند": 1785,
      "▁عملیاتو": 1786,
      "کۍ": 1787,
      "▁پرون": 1788,
      "▁برخې": 1789,
      "▁لرو": 1790,
      "گی": 1791,
      "▁اړیکې": 1792,
      "لیف": 1793,
      "▁اغی": 1794,
      "▁کریم": 1795,
      "▁شریک": 1796,
      "▁محم": 1797,
      "ږې": 1798,
      "▁وضعیت": 1799,
      "▁دح": 1800,
      "میر": 1801,
      "ږه": 1802,
      "کری": 1803,
      "▁آن": 1804,
      "▁ممکن": 1805,
      "▁کړم": 1806,
      "▁بریدونو": 1807,
      "▁ناک": 1808,
      "▁راوړی": 1809,
      "▁بلې": 1810,
      "▁تړاو": 1811,
      "▁استخ": 1812,
      "▁ولایتونو": 1813,
      "▁نژ": 1814,
      "▁کرزی": 1815,
      "▁پولیس": 1816,
      "▁مېر": 1817,
      "ایلو": 1818,
      "▁وسلو": 1819,
      "▁صف": 1820,
      "قیق": 1821,
      "▁فیص": 1822,
      "▁استاز": 1823,
      "دلې": 1824,
      "▁ډېرو": 1825,
      "▁وطن": 1826,
      "ورن": 1827,
      "▁قسم": 1828,
      "▁اساسی": 1829,
      "▁راته": 1830,
      "▁امکان": 1831,
      "برګ": 1832,
      "▁این": 1833,
      "ڼی": 1834,
      "منې": 1835,
      "ومات": 1836,
      "▁هه": 1837,
      "▁رول": 1838,
      "▁روح": 1839,
      "▁ټینګار": 1840,
      "دان": 1841,
      "سف": 1842,
      "▁ایمان": 1843,
      "▁ماته": 1844,
      "▁ډلو": 1845,
      "▁مرکزی": 1846,
      "کړ": 1847,
      "▁جری": 1848,
      "▁دهغه": 1849,
      "عودی": 1850,
      "▁مظ": 1851,
      "▁اقدام": 1852,
      "ولای": 1853,
      "▁نیولی": 1854,
      "▁مهاج": 1855,
      "▁سرو": 1856,
      "▁هندو": 1857,
      "▁ندی": 1858,
      "▁دخ": 1859,
      "▁توگه": 1860,
      "▁ختی": 1861,
      "▁غړو": 1862,
      "▁اغې": 1863,
      "▁ورکړه": 1864,
      "▁اض": 1865,
      "▁دننه": 1866,
      "▁مجاهد": 1867,
      "▁ورکړې": 1868,
      "▁شرط": 1869,
      "ژانس": 1870,
      "▁غواړ": 1871,
      "▁بغ": 1872,
      "سۍ": 1873,
      "▁یق": 1874,
      "▁سید": 1875,
      "اوو": 1876,
      "▁سپین": 1877,
      "▁مک": 1878,
      "▁زیاتو": 1879,
      "▁څنګ": 1880,
      "▁غم": 1881,
      "ارل": 1882,
      "ښته": 1883,
      "▁کف": 1884,
      "▁بېرته": 1885,
      "▁حقو": 1886,
      "▁چاپ": 1887,
      "▁کام": 1888,
      "▁معلوماتو": 1889,
      "▁شور": 1890,
      "▁ادبی": 1891,
      "▁لمان": 1892,
      "▁ځایه": 1893,
      "▁اخلا": 1894,
      "اما": 1895,
      "▁شاعر": 1896,
      "ایو": 1897,
      "▁دویم": 1898,
      "شان": 1899,
      "▁خراب": 1900,
      "▁حتی": 1901,
      "خص": 1902,
      "▁عنه": 1903,
      "▁شکل": 1904,
      "▁ګناه": 1905,
      "▁عرب": 1906,
      "▁پریک": 1907,
      "▁بېل": 1908,
      "▁ها": 1909,
      "▁عرا": 1910,
      "▁داف": 1911,
      "▁بولی": 1912,
      "اوه": 1913,
      "▁رسمی": 1914,
      "▁شپې": 1915,
      "▁سعودی": 1916,
      "▁ء": 1917,
      "ایلی": 1918,
      "وړې": 1919,
      "▁استازی": 1920,
      "▁اندې": 1921,
      "▁څېر": 1922,
      "ځو": 1923,
      "غور": 1924,
      "▁لیکی": 1925,
      "▁نبی": 1926,
      "▁انتق": 1927,
      "▁فساد": 1928,
      "▁زړ": 1929,
      "▁دور": 1930,
      "▁عذ": 1931,
      "فظ": 1932,
      "▁دخپ": 1933,
      "▁تنظیم": 1934,
      "▁ټپیان": 1935,
      "▁صح": 1936,
      "▁روژ": 1937,
      "▁اسیا": 1938,
      "▁تس": 1939,
      "لین": 1940,
      "▁دای": 1941,
      "▁قوماند": 1942,
      "▁مړ": 1943,
      "▁ځا": 1944,
      "▁خیر": 1945,
      "▁پلو": 1946,
      "▁ورور": 1947,
      "▁شمالی": 1948,
      "▁رک": 1949,
      "▁اړخ": 1950,
      "▁هوا": 1951,
      "▁خاص": 1952,
      "دن": 1953,
      "▁اتح": 1954,
      "▁ژوندی": 1955,
      "خان": 1956,
      "▁جدی": 1957,
      "▁منظ": 1958,
      "څخه": 1959,
      "▁فلم": 1960,
      "▁موده": 1961,
      "▁هرات": 1962,
      "هم": 1963,
      "▁خاطر": 1964,
      "▁ګواښ": 1965,
      "▁ځواکونه": 1966,
      "▁پوهې": 1967,
      "اکر": 1968,
      "▁خاوند": 1969,
      "▁پوست": 1970,
      "سا": 1971,
      "▁اردو": 1972,
      "▁اندېښ": 1973,
      "▁لاړ": 1974,
      "▁ابو": 1975,
      "▁ګام": 1976,
      "ټاک": 1977,
      "▁حاص": 1978,
      "یدان": 1979,
      "▁میاشتو": 1980,
      "▁براب": 1981,
      "▁نړیوالې": 1982,
      "ادو": 1983,
      "▁روغتون": 1984,
      "▁پیغام": 1985,
      "شا": 1986,
      "▁لاز": 1987,
      "▁خپلواک": 1988,
      "▁همکار": 1989,
      "منه": 1990,
      "▁ورسې": 1991,
      "▁ځینی": 1992,
      "یرو": 1993,
      "▁کوونکو": 1994,
      "▁طب": 1995,
      "جب": 1996,
      "فق": 1997,
      "▁ناټو": 1998,
      "▁کارول": 1999,
      "▁گر": 2000,
      "▁اصل": 2001,
      "دد": 2002,
      "▁وع": 2003,
      "ونځی": 2004,
      "ایم": 2005,
      "▁اټ": 2006,
      "▁اکث": 2007,
      "▁شرای": 2008,
      "▁نورې": 2009,
      "▁فعالیت": 2010,
      "▁شروع": 2011,
      "▁موسی": 2012,
      "▁فق": 2013,
      "▁اروپ": 2014,
      "▁نېټه": 2015,
      "▁لغ": 2016,
      "▁شریف": 2017,
      "▁پرتله": 2018,
      "▁قدرت": 2019,
      "▁ونیسی": 2020,
      "▁شخصی": 2021,
      "▁ابن": 2022,
      "میت": 2023,
      "▁لوبغاړی": 2024,
      "▁پیسې": 2025,
      "کړې": 2026,
      "▁زیاتې": 2027,
      "▁جر": 2028,
      "ښتې": 2029,
      "▁بهرنی": 2030,
      "▁واخی": 2031,
      "▁څیړ": 2032,
      "▁ظاه": 2033,
      "▁راشی": 2034,
      "▁کډوالو": 2035,
      "▁وح": 2036,
      "▁ګا": 2037,
      "▁عملیات": 2038,
      "▁ځانګړې": 2039,
      "▁لوبو": 2040,
      "▁ږ": 2041,
      "▁فلس": 2042,
      "▁روا": 2043,
      "▁بندیز": 2044,
      "باد": 2045,
      "▁حکوم": 2046,
      "▁بریدونه": 2047,
      "▁انسانی": 2048,
      "▁مقابل": 2049,
      "▁توکو": 2050,
      "▁کارونه": 2051,
      "▁ادارو": 2052,
      "▁اصلاح": 2053,
      "▁اغ": 2054,
      "▁غوښتل": 2055,
      "▁روایت": 2056,
      "▁سترګو": 2057,
      "▁ژبې": 2058,
      "▁الدین": 2059,
      "▁ښځه": 2060,
      "▁غبرګ": 2061,
      "▁خوراک": 2062,
      "▁بین": 2063,
      "ستم": 2064,
      "▁صدر": 2065,
      "▁ددغه": 2066,
      "▁ایالاتو": 2067,
      "▁الن": 2068,
      "▁مسؤ": 2069,
      "▁ساح": 2070,
      "ایانو": 2071,
      "▁ټیم": 2072,
      "▁لښ": 2073,
      "▁دینی": 2074,
      "▁اخته": 2075,
      "وبه": 2076,
      "▁قانونی": 2077,
      "▁ناز": 2078,
      "▁آر": 2079,
      "▁نک": 2080,
      "▁ډګر": 2081,
      "▁سهار": 2082,
      "▁آیا": 2083,
      "▁سبا": 2084,
      "▁مض": 2085,
      "▁تری": 2086,
      "▁رضی": 2087,
      "▁مرستو": 2088,
      "▁وده": 2089,
      "▁چیرې": 2090,
      "سس": 2091,
      "▁تاریخی": 2092,
      "▁ډو": 2093,
      "▁علمی": 2094,
      "▁دنده": 2095,
      "خوالی": 2096,
      "▁ډک": 2097,
      "▁نښه": 2098,
      "لمند": 2099,
      "داری": 2100,
      "▁لرونکی": 2101,
      "شم": 2102,
      "▁جگ": 2103,
      "▁فعال": 2104,
      "ګانو": 2105,
      "▁نیولو": 2106,
      "▁زرو": 2107,
      "▁رض": 2108,
      "ندر": 2109,
      "▁فل": 2110,
      "▁بڼه": 2111,
      "▁دافغان": 2112,
      "شل": 2113,
      "▁لاندی": 2114,
      "مهال": 2115,
      "▁عدال": 2116,
      "▁دوهم": 2117,
      "▁استعمال": 2118,
      "▁اعلام": 2119,
      "▁کرونا": 2120,
      "عاتو": 2121,
      "ښتو": 2122,
      "املر": 2123,
      "واو": 2124,
      "▁دست": 2125,
      "▁برې": 2126,
      "ولیت": 2127,
      "▁ولسو": 2128,
      "▁کوچنی": 2129,
      "▁نتیجه": 2130,
      "▁ایت": 2131,
      "▁بېلاب": 2132,
      "▁کمز": 2133,
      "▁اوسنی": 2134,
      "▁غورځ": 2135,
      "▁توپیر": 2136,
      "▁پراخت": 2137,
      "▁خار": 2138,
      "▁امارت": 2139,
      "▁ډا": 2140,
      "یدل": 2141,
      "اعظم": 2142,
      "▁پاملر": 2143,
      "▁مشال": 2144,
      "▁ښوونځی": 2145,
      "ورډ": 2146,
      "افر": 2147,
      "▁مشهور": 2148,
      "▁مثال": 2149,
      "▁ازاد": 2150,
      "▁پایله": 2151,
      "▁نع": 2152,
      "▁قض": 2153,
      "▁هڅې": 2154,
      "▁ستونزه": 2155,
      "▁مخک": 2156,
      "▁قط": 2157,
      "▁الی": 2158,
      "▁چلند": 2159,
      "▁ددی": 2160,
      "قا": 2161,
      "▁تېرې": 2162,
      "پوټ": 2163,
      "▁ولو": 2164,
      "▁ورب": 2165,
      "ګې": 2166,
      "جر": 2167,
      "اسم": 2168,
      "خر": 2169,
      "▁پېښه": 2170,
      "▁ناروغۍ": 2171,
      "▁حساب": 2172,
      "▁مین": 2173,
      "ودو": 2174,
      "ګان": 2175,
      "▁صحیح": 2176,
      "▁وسیله": 2177,
      "▁جلا": 2178,
      "▁جنګی": 2179,
      "▁همکاری": 2180,
      "▁یواځې": 2181,
      "▁الا": 2182,
      "▁محصول": 2183,
      "▁منی": 2184,
      "▁عالی": 2185,
      "ابو": 2186,
      "▁لره": 2187,
      "ټک": 2188,
      "▁کیدی": 2189,
      "الت": 2190,
      "▁تیری": 2191,
      "ویه": 2192,
      "▁مای": 2193,
      "ښنا": 2194,
      "▁لیکل": 2195,
      "فرانس": 2196,
      "▁انځ": 2197,
      "▁اثر": 2198,
      "▁پښتونخوا": 2199,
      "▁آیت": 2200,
      "فیت": 2201,
      "▁لاه": 2202,
      "ږئ": 2203,
      "ستو": 2204,
      "▁راوست": 2205,
      "▁موجو": 2206,
      "▁بانک": 2207,
      "▁روښانه": 2208,
      "بیر": 2209,
      "جا": 2210,
      "▁ترڅنګ": 2211,
      "▁جی": 2212,
      "لمی": 2213,
      "▁مړه": 2214,
      "▁جهاد": 2215,
      "▁آی": 2216,
      "▁خوند": 2217,
      "▁وق": 2218,
      "ناک": 2219,
      "▁یادونه": 2220,
      "▁الف": 2221,
      "▁سلام": 2222,
      "▁اروپایی": 2223,
      "▁نظامی": 2224,
      "واله": 2225,
      "▁رڼ": 2226,
      "ټل": 2227,
      "▁عربی": 2228,
      "▁وروستی": 2229,
      "ټولو": 2230,
      "▁وګړی": 2231,
      "▁هما": 2232,
      "▁درد": 2233,
      "▁عراق": 2234,
      "▁لل": 2235,
      "▁هندوستان": 2236,
      "▁شل": 2237,
      "▁دمخه": 2238,
      "▁مشران": 2239,
      "▁عق": 2240,
      "▁بلل": 2241,
      "▁پړاو": 2242,
      "▁ځمکه": 2243,
      "▁مهمه": 2244,
      "▁نیسی": 2245,
      "▁ترکیې": 2246,
      "ژۍ": 2247,
      "ڼۍ": 2248,
      "▁ګټې": 2249,
      "▁وړتیا": 2250,
      "▁کلت": 2251,
      "▁فا": 2252,
      "▁قول": 2253,
      "▁اا": 2254,
      "ابی": 2255,
      "▁کلن": 2256,
      "▁څیر": 2257,
      "▁تیره": 2258,
      "▁بای": 2259,
      "▁استخبار": 2260,
      "▁ښې": 2261,
      "▁دج": 2262,
      "نګی": 2263,
      "▁واکمن": 2264,
      "ېلو": 2265,
      "▁هلمند": 2266,
      "▁لک": 2267,
      "▁اختر": 2268,
      "▁وخ": 2269,
      "▁اختلاف": 2270,
      "▁حرکت": 2271,
      "▁پرېکړه": 2272,
      "رس": 2273,
      "▁رییس": 2274,
      "▁سع": 2275,
      "دونکو": 2276,
      "ټرول": 2277,
      "▁اقتصاد": 2278,
      "صد": 2279,
      "▁شوم": 2280,
      "▁درک": 2281,
      "▁سمه": 2282,
      "اجی": 2283,
      "▁پرانی": 2284,
      "▁خلق": 2285,
      "ذا": 2286,
      "▁جوړی": 2287,
      "▁اخیستل": 2288,
      "▁یوسف": 2289,
      "▁روانه": 2290,
      "▁امن": 2291,
      "ښودل": 2292,
      "▁څرګنده": 2293,
      "▁انتخاباتو": 2294,
      "▁ېې": 2295,
      "▁سړک": 2296,
      "▁ورکو": 2297,
      "▁مسل": 2298,
      "▁زې": 2299,
      "▁عی": 2300,
      "الح": 2301,
      "▁اشاره": 2302,
      "انګې": 2303,
      "▁یاست": 2304,
      "▁فران": 2305,
      "▁رپوټ": 2306,
      "▁واده": 2307,
      "▁ډیرو": 2308,
      "▁هل": 2309,
      "▁شنبې": 2310,
      "▁کیدل": 2311,
      "▁ویب": 2312,
      "▁خصو": 2313,
      "▁کوه": 2314,
      "▁موادو": 2315,
      "سین": 2316,
      "▁تاوتری": 2317,
      "▁نارینه": 2318,
      "وښتل": 2319,
      "▁پیسو": 2320,
      "شنبه": 2321,
      "▁پال": 2322,
      "▁سوداګرۍ": 2323,
      "▁ورځی": 2324,
      "▁بیل": 2325,
      "▁څرنګه": 2326,
      "▁ویې": 2327,
      "▁کومې": 2328,
      "غر": 2329,
      "▁رې": 2330,
      "▁قربانی": 2331,
      "▁انتظ": 2332,
      "▁تګ": 2333,
      "▁حاک": 2334,
      "▁کون": 2335,
      "▁پیژند": 2336,
      "▁واچ": 2337,
      "▁پلاوی": 2338,
      "▁ماس": 2339,
      "▁طریقه": 2340,
      "▁مسلم": 2341,
      "▁عامه": 2342,
      "▁عز": 2343,
      "▁لاسلیک": 2344,
      "▁کېدای": 2345,
      "▁ابر": 2346,
      "مین": 2347,
      "▁همدغه": 2348,
      "ائی": 2349,
      "شکه": 2350,
      "▁ازادی": 2351,
      "▁عکس": 2352,
      "▁موم": 2353,
      "▁عبادت": 2354,
      "▁حو": 2355,
      "▁یوازی": 2356,
      "▁حد": 2357,
      "▁روغتی": 2358,
      "▁دان": 2359,
      "عل": 2360,
      "څو": 2361,
      "▁خال": 2362,
      "بن": 2363,
      "▁تمه": 2364,
      "▁ځوانانو": 2365,
      "▁ختم": 2366,
      "ډۍ": 2367,
      "▁کونکی": 2368,
      "ټا": 2369,
      "▁پد": 2370,
      "قیب": 2371,
      "▁ادعا": 2372,
      "بیا": 2373,
      "▁انځور": 2374,
      "▁شوو": 2375,
      "▁روانې": 2376,
      "▁قوماندان": 2377,
      "▁جواب": 2378,
      "▁قوی": 2379,
      "▁رامینځ": 2380,
      "▁مشرۍ": 2381,
      "▁رڼا": 2382,
      "▁عل": 2383,
      "▁وچ": 2384,
      "▁حکومتی": 2385,
      "▁پکار": 2386,
      "▁پېژند": 2387,
      "▁سوال": 2388,
      "▁یوځای": 2389,
      "▁ویډیو": 2390,
      "▁نلری": 2391,
      "▁چارې": 2392,
      "▁ختیځ": 2393,
      "قان": 2394,
      "▁مثبت": 2395,
      "▁تللی": 2396,
      "ریب": 2397,
      "▁غوښتنې": 2398,
      "▁مستق": 2399,
      "▁قطر": 2400,
      "اهیم": 2401,
      "▁اروپا": 2402,
      "ځل": 2403,
      "▁وګر": 2404,
      "▁غلام": 2405,
      "ریال": 2406,
      "▁خبریالانو": 2407,
      "▁ددوی": 2408,
      "▁اختیار": 2409,
      "▁مبارزې": 2410,
      "▁راټول": 2411,
      "▁حاصل": 2412,
      "▁ظلم": 2413,
      "وندې": 2414,
      "نډه": 2415,
      "▁لرئ": 2416,
      "▁مطلب": 2417,
      "▁مراد": 2418,
      "▁کنفرانس": 2419,
      "▁ټولنیزو": 2420,
      "▁مبارزه": 2421,
      "ونک": 2422,
      "▁روغتیایی": 2423,
      "ګار": 2424,
      "▁مقد": 2425,
      "▁سلنه": 2426,
      "لیت": 2427,
      "▁وری": 2428,
      "▁دش": 2429,
      "▁کارونو": 2430,
      "▁تاوتریخوالی": 2431,
      "▁شام": 2432,
      "▁کارکو": 2433,
      "بور": 2434,
      "▁مرح": 2435,
      "▁واس": 2436,
      "▁ارګ": 2437,
      "▁جرمنی": 2438,
      "▁فرص": 2439,
      "▁نظری": 2440,
      "▁وټاک": 2441,
      "▁لږه": 2442,
      "▁تحریک": 2443,
      "ریز": 2444,
      "▁عسکر": 2445,
      "رته": 2446,
      "شې": 2447,
      "یې": 2448,
      "▁جوړوی": 2449,
      "▁ډېری": 2450,
      "▁سزا": 2451,
      "▁ضرورت": 2452,
      "ارک": 2453,
      "▁عوا": 2454,
      "▁کیدای": 2455,
      "ورم": 2456,
      "▁څیز": 2457,
      "▁محکمې": 2458,
      "▁مذاکر": 2459,
      "▁حمله": 2460,
      "▁ژباړه": 2461,
      "▁نژدې": 2462,
      "▁امان": 2463,
      "وز": 2464,
      "▁پالی": 2465,
      "▁لارو": 2466,
      "افظ": 2467,
      "اهی": 2468,
      "▁لمر": 2469,
      "▁ټا": 2470,
      "▁خیال": 2471,
      "▁یاده": 2472,
      "ستلو": 2473,
      "▁ماتې": 2474,
      "ښتی": 2475,
      "▁اداری": 2476,
      "▁سیالیو": 2477,
      "▁ثابت": 2478,
      "زب": 2479,
      "رائی": 2480,
      "▁بابا": 2481,
      "▁یادې": 2482,
      "▁ځمکې": 2483,
      "▁سور": 2484,
      "▁پراختیا": 2485,
      "▁مری": 2486,
      "▁کنټرول": 2487,
      "▁رامینځته": 2488,
      "▁نسبت": 2489,
      "▁منص": 2490,
      "نگه": 2491,
      "▁پاته": 2492,
      "▁واقع": 2493,
      "▁پوښتنې": 2494,
      "▁ونیول": 2495,
      "▁مواف": 2496,
      "▁خدا": 2497,
      "▁ګاونډ": 2498,
      "▁پاچا": 2499,
      "▁امت": 2500,
      "▁سلو": 2501,
      "▁یار": 2502,
      "▁قوت": 2503,
      "▁مانا": 2504,
      "ایټ": 2505,
      "▁شمال": 2506,
      "▁ثبت": 2507,
      "▁مالک": 2508,
      "رک": 2509,
      "▁ستاسې": 2510,
      "▁آس": 2511,
      "▁مناسب": 2512,
      "▁قال": 2513,
      "▁تعلیم": 2514,
      "▁ګڼل": 2515,
      "▁معم": 2516,
      "نوی": 2517,
      "▁رم": 2518,
      "▁سرتې": 2519,
      "▁ځایونو": 2520,
      "▁عدالت": 2521,
      "▁ښیی": 2522,
      "▁توان": 2523,
      "▁غوږ": 2524,
      "▁ناسته": 2525,
      "▁بلوچ": 2526,
      "نم": 2527,
      "▁مدنی": 2528,
      "▁وشوه": 2529,
      "▁مان": 2530,
      "▁پلور": 2531,
      "▁افغانی": 2532,
      "ونۍ": 2533,
      "▁لاسته": 2534,
      "▁معلومه": 2535,
      "▁پېښور": 2536,
      "▁زندان": 2537,
      "▁نند": 2538,
      "▁اونۍ": 2539,
      "▁ولای": 2540,
      "▁مطال": 2541,
      "▁ازم": 2542,
      "▁لارښو": 2543,
      "▁قرار": 2544,
      "▁غبرګون": 2545,
      "▁ترتی": 2546,
      "▁ساع": 2547,
      "▁تیرو": 2548,
      "▁عذاب": 2549,
      "▁فرمایی": 2550,
      "▁شهید": 2551,
      "ربند": 2552,
      "▁دق": 2553,
      "▁لمانځه": 2554,
      "▁پلټ": 2555,
      "ښښ": 2556,
      "▁تحقیق": 2557,
      "▁صرف": 2558,
      "▁مقر": 2559,
      "▁سوریې": 2560,
      "بره": 2561,
      "▁ننو": 2562,
      "▁اوږدو": 2563,
      "▁انص": 2564,
      "نت": 2565,
      "▁خوست": 2566,
      "▁ضروری": 2567,
      "▁کاندی": 2568,
      "ضه": 2569,
      "ولا": 2570,
      "▁وجود": 2571,
      "یاد": 2572,
      "▁کولې": 2573,
      "▁قام": 2574,
      "▁پروژې": 2575,
      "کنالو": 2576,
      "جد": 2577,
      "▁ویروس": 2578,
      "مال": 2579,
      "ازې": 2580,
      "راض": 2581,
      "▁سیستم": 2582,
      "▁لین": 2583,
      "▁جومات": 2584,
      "▁وگ": 2585,
      "▁ځایی": 2586,
      "▁جلال": 2587,
      "▁مختلفو": 2588,
      "▁خوله": 2589,
      "▁قیم": 2590,
      "▁ادا": 2591,
      "▁داده": 2592,
      "▁تصوی": 2593,
      "▁زا": 2594,
      "▁څلورو": 2595,
      "▁پناه": 2596,
      "▁تنو": 2597,
      "▁ګټو": 2598,
      "▁جریان": 2599,
      "▁راتلونکې": 2600,
      "▁لګښت": 2601,
      "▁توکی": 2602,
      "▁دعا": 2603,
      "▁روس": 2604,
      "▁وتلو": 2605,
      "▁عمران": 2606,
      "▁کاری": 2607,
      "▁ژغور": 2608,
      "▁قومی": 2609,
      "▁وځ": 2610,
      "▁قوان": 2611,
      "▁میدان": 2612,
      "▁ځنډ": 2613,
      "▁اړخی": 2614,
      "▁مخالفت": 2615,
      "نیز": 2616,
      "▁اورې": 2617,
      "▁سال": 2618,
      "لوی": 2619,
      "ږم": 2620,
      "▁ډالرو": 2621,
      "واه": 2622,
      "▁داخلی": 2623,
      "ارۍ": 2624,
      "لادی": 2625,
      "▁اولاد": 2626,
      "ینا": 2627,
      "▁نړیواله": 2628,
      "▁حیث": 2629,
      "رمان": 2630,
      "▁اندی": 2631,
      "▁انج": 2632,
      "▁ووه": 2633,
      "▁داد": 2634,
      "▁درس": 2635,
      "▁مسلمانان": 2636,
      "▁وفرم": 2637,
      "▁موس": 2638,
      "▁جا": 2639,
      "▁مصر": 2640,
      "▁پیرود": 2641,
      "▁لیدلی": 2642,
      "▁اته": 2643,
      "ولۍ": 2644,
      "شته": 2645,
      "▁اطلا": 2646,
      "▁کمیسیون": 2647,
      "▁هج": 2648,
      "▁کره": 2649,
      "▁حسن": 2650,
      "▁انر": 2651,
      "وات": 2652,
      "▁نیت": 2653,
      "▁کړے": 2654,
      "▁ورځپاڼې": 2655,
      "▁اخیستی": 2656,
      "کال": 2657,
      "▁لیکنه": 2658,
      "▁سیند": 2659,
      "▁راتګ": 2660,
      "▁راب": 2661,
      "اوسه": 2662,
      "▁اسر": 2663,
      "▁وژلی": 2664,
      "▁پراخه": 2665,
      "▁شخصیت": 2666,
      "▁کورونو": 2667,
      "صیل": 2668,
      "▁اوږد": 2669,
      "▁سپار": 2670,
      "▁جنت": 2671,
      "▁غه": 2672,
      "▁یت": 2673,
      "▁کمېسیون": 2674,
      "▁وائی": 2675,
      "ستې": 2676,
      "▁مذهبی": 2677,
      "▁بېلابېلو": 2678,
      "▁پښتانه": 2679,
      "▁کیفیت": 2680,
      "▁اراده": 2681,
      "▁لړۍ": 2682,
      "▁ځو": 2683,
      "▁الرح": 2684,
      "▁دود": 2685,
      "▁ساده": 2686,
      "▁خپور": 2687,
      "▁حیر": 2688,
      "▁سترګې": 2689,
      "قات": 2690,
      "کلی": 2691,
      "▁ټولنیز": 2692,
      "▁چېرې": 2693,
      "▁وروستۍ": 2694,
      "منی": 2695,
      "▁سټ": 2696,
      "امد": 2697,
      "پاڼه": 2698,
      "▁غزنی": 2699,
      "▁ومن": 2700,
      "ویل": 2701,
      "▁مدی": 2702,
      "▁راج": 2703,
      "شد": 2704,
      "▁ادب": 2705,
      "▁ویا": 2706,
      "▁ښکار": 2707,
      "▁اغېز": 2708,
      "ګونو": 2709,
      "▁بوخت": 2710,
      "▁دافغانستان": 2711,
      "▁منع": 2712,
      "اوت": 2713,
      "انګه": 2714,
      "▁الص": 2715,
      "▁مشکل": 2716,
      "فاظ": 2717,
      "لل": 2718,
      "▁مختلف": 2719,
      "▁واړه": 2720,
      "▁ناوړه": 2721,
      "▁یرغل": 2722,
      "▁پاڼه": 2723,
      "طبی": 2724,
      "▁انټر": 2725,
      "▁شوے": 2726,
      "کول": 2727,
      "▁مظاه": 2728,
      "▁مقا": 2729,
      "▁ساتلو": 2730,
      "▁خلقو": 2731,
      "▁نب": 2732,
      "▁تاب": 2733,
      "▁دادی": 2734,
      "▁کری": 2735,
      "▁خت": 2736,
      "▁ګرو": 2737,
      "▁لح": 2738,
      "▁باغ": 2739,
      "امې": 2740,
      "▁دریځ": 2741,
      "رئ": 2742,
      "▁پېښو": 2743,
      "▁جمعې": 2744,
      "▁نرم": 2745,
      "▁خلیل": 2746,
      "▁پیاوړی": 2747,
      "▁هماغه": 2748,
      "یاب": 2749,
      "▁خپلی": 2750,
      "ټۍ": 2751,
      "ړتیا": 2752,
      "▁خدم": 2753,
      "▁ترج": 2754,
      "▁لویو": 2755,
      "▁ستراتی": 2756,
      "▁دندې": 2757,
      "گې": 2758,
      "▁ذهن": 2759,
      "▁اړیکه": 2760,
      "▁عا": 2761,
      "▁پاس": 2762,
      "ذی": 2763,
      "▁الت": 2764,
      "ویی": 2765,
      "▁رښتیا": 2766,
      "وړو": 2767,
      "▁اوباما": 2768,
      "▁واخ": 2769,
      "▁ترتیب": 2770,
      "ریکې": 2771,
      "▁حالاتو": 2772,
      "▁بورډ": 2773,
      "▁استع": 2774,
      "▁محمود": 2775,
      "▁واش": 2776,
      "▁تعال": 2777,
      "▁اسانه": 2778,
      "▁شیان": 2779,
      "▁سفارت": 2780,
      "▁مواد": 2781,
      "▁جنسی": 2782,
      "سټم": 2783,
      "ریح": 2784,
      "▁ښځینه": 2785,
      "▁تجربه": 2786,
      "▁شوروی": 2787,
      "رسی": 2788,
      "▁میلیونه": 2789,
      "▁برابره": 2790,
      "▁ګډه": 2791,
      "▁باره": 2792,
      "▁اوم": 2793,
      "▁لویدی": 2794,
      "▁رغ": 2795,
      "▁درلوده": 2796,
      "▁سری": 2797,
      "▁عسکرو": 2798,
      "▁قل": 2799,
      "▁بیت": 2800,
      "▁فرض": 2801,
      "زار": 2802,
      "ګونه": 2803,
      "▁لرم": 2804,
      "▁مولوی": 2805,
      "پورټ": 2806,
      "▁ساتل": 2807,
      "▁همکارۍ": 2808,
      "▁وړو": 2809,
      "▁اث": 2810,
      "نج": 2811,
      "▁ګرځی": 2812,
      "▁بلوچستان": 2813,
      "▁شیخ": 2814,
      "▁احت": 2815,
      "▁تراوسه": 2816,
      "▁ران": 2817,
      "▁خپره": 2818,
      "▁جنوبی": 2819,
      "▁پلوه": 2820,
      "▁عص": 2821,
      "▁اګ": 2822,
      "▁مستقیم": 2823,
      "▁حاض": 2824,
      "▁خې": 2825,
      "▁های": 2826,
      "▁وګړو": 2827,
      "▁وګورئ": 2828,
      "▁جوړښت": 2829,
      "▁سیالۍ": 2830,
      "▁آزاد": 2831,
      "▁کلم": 2832,
      "▁شکایت": 2833,
      "یدلی": 2834,
      "▁ځله": 2835,
      "▁چاپی": 2836,
      "▁رژ": 2837,
      "▁وسپ": 2838,
      "هر": 2839,
      "▁ځلې": 2840,
      "▁ولسوالیو": 2841,
      "▁بز": 2842,
      "▁شمې": 2843,
      "▁پوهی": 2844,
      "▁هرې": 2845,
      "▁اوښ": 2846,
      "▁خیبر": 2847,
      "▁تت": 2848,
      "▁ډیز": 2849,
      "دیق": 2850,
      "▁کاب": 2851,
      "▁پانګ": 2852,
      "ومه": 2853,
      "مرک": 2854,
      "▁سفیر": 2855,
      "▁سپی": 2856,
      "▁عقی": 2857,
      "▁ابراهیم": 2858,
      "▁ژمنه": 2859,
      "▁طبیعی": 2860,
      "▁جون": 2861,
      "▁مقاب": 2862,
      "▁لښکر": 2863,
      "▁جز": 2864,
      "▁ځپ": 2865,
      "▁صوب": 2866,
      "نس": 2867,
      "▁جګړو": 2868,
      "بیره": 2869,
      "▁کافی": 2870,
      "کستان": 2871,
      "▁لوړه": 2872,
      "▁پروسه": 2873,
      "▁پریکړه": 2874,
      "ئت": 2875,
      "علی": 2876,
      "▁سوې": 2877,
      "▁پاتی": 2878,
      "▁معام": 2879,
      "▁وینو": 2880,
      "▁ګڼی": 2881,
      "▁پښو": 2882,
      "ډن": 2883,
      "▁ارت": 2884,
      "▁لویې": 2885,
      "گو": 2886,
      "دید": 2887,
      "▁مخکی": 2888,
      "▁وایې": 2889,
      "ونده": 2890,
      "خره": 2891,
      "▁رق": 2892,
      "▁اوربند": 2893,
      "▁راس": 2894,
      "ښن": 2895,
      "▁تاج": 2896,
      "▁دقی": 2897,
      "▁شرایطو": 2898,
      "▁اسان": 2899,
      "▁ثبات": 2900,
      "▁وص": 2901,
      "▁اوکر": 2902,
      "▁بلا": 2903,
      "▁داس": 2904,
      "وادو": 2905,
      "▁مب": 2906,
      "▁زیاتره": 2907,
      "▁مطاب": 2908,
      "▁راغی": 2909,
      "▁ډیرې": 2910,
      "▁درته": 2911,
      "▁اسن": 2912,
      "▁ایس": 2913,
      "▁عقل": 2914,
      "▁بنده": 2915,
      "▁لن": 2916,
      "▁سږ": 2917,
      "شق": 2918,
      "▁لسی": 2919,
      "▁مرکه": 2920,
      "جیب": 2921,
      "دیو": 2922,
      "▁حضور": 2923,
      "▁پاملرنه": 2924,
      "▁رحمه": 2925,
      "▁ځوانان": 2926,
      "▁چهار": 2927,
      "یمو": 2928,
      "▁آباد": 2929,
      "▁احتم": 2930,
      "▁جمع": 2931,
      "▁ند": 2932,
      "▁ساعت": 2933,
      "پسې": 2934,
      "▁مودې": 2935,
      "▁سرچینې": 2936,
      "▁نجونو": 2937,
      "▁مذهب": 2938,
      "ریږی": 2939,
      "▁ماښ": 2940,
      "▁استف": 2941,
      "اظ": 2942,
      "اوې": 2943,
      "▁بود": 2944,
      "▁ماڼۍ": 2945,
      "▁هڅو": 2946,
      "▁صد": 2947,
      "▁چاودنه": 2948,
      "▁مسوول": 2949,
      "▁کارو": 2950,
      "بېره": 2951,
      "رش": 2952,
      "▁نت": 2953,
      "امین": 2954,
      "▁پرځای": 2955,
      "▁مننه": 2956,
      "▁پنځو": 2957,
      "حمد": 2958,
      "▁دوره": 2959,
      "▁إ": 2960,
      "▁خوړ": 2961,
      "▁انسانانو": 2962,
      "▁زرګ": 2963,
      "▁واسطه": 2964,
      "▁ګوری": 2965,
      "▁محت": 2966,
      "▁لب": 2967,
      "▁تروری": 2968,
      "▁اندیښ": 2969,
      "▁کیسه": 2970,
      "▁ملگ": 2971,
      "▁سوداګری": 2972,
      "▁مقاومت": 2973,
      "افه": 2974,
      "▁ښکلی": 2975,
      "▁تقری": 2976,
      "▁شف": 2977,
      "▁ترهګرۍ": 2978,
      "▁واشنګ": 2979,
      "▁آلمان": 2980,
      "▁سربېره": 2981,
      "▁لفظ": 2982,
      "▁وغوا": 2983,
      "▁ووایی": 2984,
      "▁حزب": 2985,
      "▁ټوی": 2986,
      "ږل": 2987,
      "▁سیسټم": 2988,
      "▁وپ": 2989,
      "▁لای": 2990,
      "مۍ": 2991,
      "▁شی\r\n": 2992,
      "▁وخته": 2993,
      "کړو": 2994,
      "▁قبی": 2995,
      "بول": 2996,
      "▁پارلمان": 2997,
      "اچ": 2998,
      "ونونو": 2999,
      "▁کارولو": 3000,
      "▁سرپر": 3001,
      "لونو": 3002,
      "▁ین": 3003,
      "▁البته": 3004,
      "▁پلوی": 3005,
      "▁شت": 3006,
      "▁عبارت": 3007,
      "امخا": 3008,
      "▁دریو": 3009,
      "▁میلادی": 3010,
      "▁مطبو": 3011,
      "▁اهل": 3012,
      "▁ساتی": 3013,
      "▁بده": 3014,
      "ناوی": 3015,
      "▁کیم": 3016,
      "▁خود": 3017,
      "▁ځانونه": 3018,
      "غال": 3019,
      "▁چیری": 3020,
      "▁ګی": 3021,
      "▁جلاله": 3022,
      "▁وساتی": 3023,
      "▁داخل": 3024,
      "▁سلطان": 3025,
      "▁ډیزاین": 3026,
      "▁ولایتی": 3027,
      "▁طرح": 3028,
      "▁وشو": 3029,
      "دیت": 3030,
      "لیږی": 3031,
      "▁خنډ": 3032,
      "▁ودانۍ": 3033,
      "کتور": 3034,
      "▁لوې": 3035,
      "کاټ": 3036,
      "اسمو": 3037,
      "▁خرڅ": 3038,
      "▁اوو": 3039,
      "▁حامد": 3040,
      "▁انقل": 3041,
      "▁رسیږی": 3042,
      "▁عط": 3043,
      "▁خاوره": 3044,
      "▁ګران": 3045,
      "▁حملې": 3046,
      "▁وزیرستان": 3047,
      "▁واکسین": 3048,
      "ضد": 3049,
      "▁رسېدلی": 3050,
      "▁وینې": 3051,
      "▁پوهیږی": 3052,
      "▁مځ": 3053,
      "حې": 3054,
      "▁وکیل": 3055,
      "▁تیار": 3056,
      "▁تخنی": 3057,
      "▁منلو": 3058,
      "▁تړلی": 3059,
      "▁اوونۍ": 3060,
      "▁دخپل": 3061,
      "▁غواړم": 3062,
      "▁عادی": 3063,
      "▁خصوصی": 3064,
      "اث": 3065,
      "اعده": 3066,
      "▁پراخ": 3067,
      "اعی": 3068,
      "▁مسلکی": 3069,
      "دانو": 3070,
      "حر": 3071,
      "▁جوړول": 3072,
      "▁رج": 3073,
      "▁همغ": 3074,
      "▁روژه": 3075,
      "▁دریم": 3076,
      "▁اصط": 3077,
      "وبر": 3078,
      "رګی": 3079,
      "▁لوړو": 3080,
      "▁شرم": 3081,
      "▁پایلې": 3082,
      "▁کمزوری": 3083,
      "ږۍ": 3084,
      "▁کټ": 3085,
      "▁دوې": 3086,
      "شتی": 3087,
      "▁تعقیب": 3088,
      "▁صفت": 3089,
      "نټ": 3090,
      "وریت": 3091,
      "▁تغ": 3092,
      "▁کوښښ": 3093,
      "دنه": 3094,
      "▁اوپه": 3095,
      "▁دز": 3096,
      "▁اتحاد": 3097,
      "▁لومړنی": 3098,
      "غم": 3099,
      "جان": 3100,
      "▁پرمهال": 3101,
      "▁اجر": 3102,
      "▁افری": 3103,
      "ایان": 3104,
      "ډر": 3105,
      "▁ماښام": 3106,
      "▁احک": 3107,
      "▁رژیم": 3108,
      "▁خامخا": 3109,
      "پلوم": 3110,
      "▁هندی": 3111,
      "عود": 3112,
      "▁مدر": 3113,
      "▁هیڅکله": 3114,
      "▁اژانس": 3115,
      "▁ورسوی": 3116,
      "▁خلی": 3117,
      "روف": 3118,
      "▁لرغ": 3119,
      "▁تطبی": 3120,
      "▁مشت": 3121,
      "▁رش": 3122,
      "▁اعلامیه": 3123,
      "▁عین": 3124,
      "کور": 3125,
      "▁معت": 3126,
      "▁همداسې": 3127,
      "▁هغی": 3128,
      "▁شیانو": 3129,
      "▁عبد": 3130,
      "▁ویشت": 3131,
      "▁قران": 3132,
      "▁بریا": 3133,
      "▁کډوال": 3134,
      "ارد": 3135,
      "▁لام": 3136,
      "انت": 3137,
      "▁څرگ": 3138,
      "▁کارپوه": 3139,
      "▁واحد": 3140,
      "اکار": 3141,
      "ونکے": 3142,
      "▁سردار": 3143,
      "▁ترک": 3144,
      "▁لیګ": 3145,
      "ئې": 3146,
      "پان": 3147,
      "▁فری": 3148,
      "▁واشنګټن": 3149,
      "میم": 3150,
      "▁اهمیت": 3151,
      "▁استفاده": 3152,
      "▁لوبغاړو": 3153,
      "▁ورباندې": 3154,
      "▁پیښې": 3155,
      "ارف": 3156,
      "▁شبکې": 3157,
      "▁اتل": 3158,
      "▁زخ": 3159,
      "▁حاجی": 3160,
      "▁جذ": 3161,
      "ونځیو": 3162,
      "مع": 3163,
      "▁عربستان": 3164,
      "▁الک": 3165,
      "▁ډوډۍ": 3166,
      "زل": 3167,
      "▁ریښت": 3168,
      "ندې": 3169,
      "▁تګل": 3170,
      "▁خاورې": 3171,
      "▁اکت": 3172,
      "▁دال": 3173,
      "▁کړای": 3174,
      "▁فضل": 3175,
      "حق": 3176,
      "ګۍ": 3177,
      "▁ازموی": 3178,
      "غوی": 3179,
      "دۍ": 3180,
      "▁جمهوریت": 3181,
      "نک": 3182,
      "▁پخپل": 3183,
      "▁اوسېدونکی": 3184,
      "▁وسلې": 3185,
      "▁راتلونکو": 3186,
      "زیز": 3187,
      "▁ترهګرو": 3188,
      "▁اترو": 3189,
      "▁پروت": 3190,
      "▁دمه": 3191,
      "▁سول": 3192,
      "▁تکر": 3193,
      "ایید": 3194,
      "ولس": 3195,
      "▁قضی": 3196,
      "▁بان": 3197,
      "▁رای": 3198,
      "▁روی": 3199,
      "رفی": 3200,
      "▁قومندان": 3201,
      "الیا": 3202,
      "▁مهرب": 3203,
      "▁سربیره": 3204,
      "▁ودې": 3205,
      "▁هنر": 3206,
      "▁کافر": 3207,
      "فې": 3208,
      "▁استازو": 3209,
      "▁ډر": 3210,
      "▁خپرې": 3211,
      "▁هس": 3212,
      "▁وان": 3213,
      "▁منفی": 3214,
      "امن": 3215,
      "▁کلام": 3216,
      "▁زمینه": 3217,
      "▁الو": 3218,
      "▁سج": 3219,
      "▁انتقال": 3220,
      "▁صادر": 3221,
      "▁راولی": 3222,
      "▁تار": 3223,
      "ښل": 3224,
      "▁یادو": 3225,
      "نلیک": 3226,
      "▁حسین": 3227,
      "▁کمپاین": 3228,
      "▁تعریف": 3229,
      "▁امریکایانو": 3230,
      "▁غواړو": 3231,
      "▁ټین": 3232,
      "▁فصل": 3233,
      "▁خز": 3234,
      "▁راپ": 3235,
      "▁قدر": 3236,
      "▁ډالر": 3237,
      "ژنی": 3238,
      "▁رسیدلی": 3239,
      "▁لټ": 3240,
      "▁ګوته": 3241,
      "▁رحم": 3242,
      "▁اوچ": 3243,
      "قد": 3244,
      "بیه": 3245,
      "▁ښارونو": 3246,
      "▁پروسې": 3247,
      "▁توب": 3248,
      "دود": 3249,
      "▁زیاتوالی": 3250,
      "▁وغوښتل": 3251,
      "▁قبایلی": 3252,
      "▁بلخ": 3253,
      "انونو": 3254,
      "اکستان": 3255,
      "▁ډب": 3256,
      "لاین": 3257,
      "افو": 3258,
      "▁وکړل": 3259,
      "ینۍ": 3260,
      "▁عزت": 3261,
      "▁رسوی": 3262,
      "▁مارچ": 3263,
      "▁جنگ": 3264,
      "▁بشپړه": 3265,
      "▁پوهه": 3266,
      "▁کښے": 3267,
      "▁ګډو": 3268,
      "▁غلط": 3269,
      "▁دۍ": 3270,
      "▁کلا": 3271,
      "▁ولیدل": 3272,
      "▁وینی": 3273,
      "▁کښت": 3274,
      "▁قاضی": 3275,
      "▁معنا": 3276,
      "تانیا": 3277,
      "▁ټولی": 3278,
      "▁خبرونه": 3279,
      "▁مسی": 3280,
      "اتل": 3281,
      "▁سوره": 3282,
      "▁پرضد": 3283,
      "▁آژانس": 3284,
      "▁اعتراض": 3285,
      "▁سط": 3286,
      "▁ځانه": 3287,
      "▁وڅ": 3288,
      "▁انگ": 3289,
      "ستر": 3290,
      "▁نومونه": 3291,
      "▁جهان": 3292,
      "▁خوشې": 3293,
      "▁خوشحال": 3294,
      "▁خولې": 3295,
      "▁تطبیق": 3296,
      "▁تلو": 3297,
      "▁مقصد": 3298,
      "زاده": 3299,
      "▁مجاهدینو": 3300,
      "▁پیغمبر": 3301,
      "▁مصرف": 3302,
      "یوان": 3303,
      "ونونه": 3304,
      "یی": 3305,
      "شری": 3306,
      "ورین": 3307,
      "▁ترټولو": 3308,
      "▁زل": 3309,
      "ښک": 3310,
      "▁لوبډله": 3311,
      "▁خپلوا": 3312,
      "▁اغیز": 3313,
      "▁درناوی": 3314,
      "▁تلوی": 3315,
      "▁واجب": 3316,
      "▁شین": 3317,
      "▁کتابونه": 3318,
      "▁هری": 3319,
      "▁ډډه": 3320,
      "▁درجه": 3321,
      "▁رر": 3322,
      "▁ځنی": 3323,
      "لیمی": 3324,
      "ثیر": 3325,
      "▁دروغ": 3326,
      "بوک": 3327,
      "▁ساتنې": 3328,
      "▁واو": 3329,
      "▁اون": 3330,
      "▁زیر": 3331,
      "▁مدیریت": 3332,
      "▁جای": 3333,
      "▁زو": 3334,
      "▁مخی": 3335,
      "▁نیک": 3336,
      "▁فې": 3337,
      "▁تایید": 3338,
      "▁سخته": 3339,
      "▁وژنې": 3340,
      "▁کلتور": 3341,
      "▁منت": 3342,
      "▁پاڼې": 3343,
      "▁یووالی": 3344,
      "▁پردې": 3345,
      "▁تبلی": 3346,
      "▁رن": 3347,
      "▁کالو": 3348,
      "لونه": 3349,
      "▁سام": 3350,
      "ځول": 3351,
      "▁رت": 3352,
      "▁ګرد": 3353,
      "▁غوښتنلیک": 3354,
      "▁هغوئ": 3355,
      "څا": 3356,
      "▁ټیټ": 3357,
      "▁راه": 3358,
      "▁تلا": 3359,
      "▁اعتبار": 3360,
      "▁باط": 3361,
      "▁کتل": 3362,
      "▁پاڅ": 3363,
      "▁شیر": 3364,
      "▁یوی": 3365,
      "▁اوکراین": 3366,
      "فاق": 3367,
      "▁میت": 3368,
      "▁قتل": 3369,
      "▁آخ": 3370,
      "▁لاسرسی": 3371,
      "سیم": 3372,
      "▁نیمه": 3373,
      "▁برخ": 3374,
      "▁کورنی": 3375,
      "▁مراسمو": 3376,
      "▁فلسط": 3377,
      "▁حواله": 3378,
      "▁رحمت": 3379,
      "▁ګرم": 3380,
      "ندوی": 3381,
      "▁وجې": 3382,
      "▁یل": 3383,
      "است": 3384,
      "▁مکر": 3385,
      "▁علوم": 3386,
      "▁ژبو": 3387,
      "باب": 3388,
      "رل": 3389,
      "▁حقانی": 3390,
      "▁عیسی": 3391,
      "▁هېوادونه": 3392,
      "▁تاوان": 3393,
      "▁نیولې": 3394,
      "▁امریکې": 3395,
      "▁صاد": 3396,
      "▁ستاسی": 3397,
      "ریس": 3398,
      "▁انګری": 3399,
      "▁ښوونځیو": 3400,
      "▁مون": 3401,
      "▁یئ": 3402,
      "▁اصطلاح": 3403,
      "▁بادشاه": 3404,
      "▁ایرانی": 3405,
      "▁مرت": 3406,
      "▁هلک": 3407,
      "▁کند": 3408,
      "▁راست": 3409,
      "▁ټې": 3410,
      "▁وبل": 3411,
      "▁سرپرست": 3412,
      "▁هسې": 3413,
      "▁نعمت": 3414,
      "▁فرانسې": 3415,
      "▁صل": 3416,
      "▁مقرر": 3417,
      "▁کلمه": 3418,
      "▁شریعت": 3419,
      "ټس": 3420,
      "▁متن": 3421,
      "▁وکړم": 3422,
      "▁داو": 3423,
      "▁بشر": 3424,
      "▁علام": 3425,
      "▁اواز": 3426,
      "▁کتابونو": 3427,
      "▁راغلې": 3428,
      "▁احتج": 3429,
      "▁منډې": 3430,
      "▁تورن": 3431,
      "▁بنګ": 3432,
      "▁انتظار": 3433,
      "▁هرڅه": 3434,
      "▁قوا": 3435,
      "▁درېیم": 3436,
      "ېدو": 3437,
      "تن": 3438,
      "زیون": 3439,
      "▁دفاعی": 3440,
      "▁مؤمن": 3441,
      "▁ورن": 3442,
      "▁غواړئ": 3443,
      "▁الج": 3444,
      "▁سورت": 3445,
      "▁اړین": 3446,
      "افغان": 3447,
      "▁انصاف": 3448,
      "▁لق": 3449,
      "▁مطابق": 3450,
      "▁امار": 3451,
      "▁قص": 3452,
      "ټرو": 3453,
      "رینو": 3454,
      "▁خوښه": 3455,
      "اسۍ": 3456,
      "▁ابت": 3457,
      "▁مسعود": 3458,
      "▁زلمی": 3459,
      "▁دوشنبې": 3460,
      "▁ډاکتر": 3461,
      "▁وهی": 3462,
      "▁تض": 3463,
      "▁نیټه": 3464,
      "▁زک": 3465,
      "مار": 3466,
      "▁صلاح": 3467,
      "یرته": 3468,
      "▁حبی": 3469,
      "▁څانګې": 3470,
      "▁لان": 3471,
      "▁تعلق": 3472,
      "▁شمول": 3473,
      "▁ځور": 3474,
      "نل": 3475,
      "▁دیو": 3476,
      "▁کړۍ": 3477,
      "▁اما": 3478,
      "▁فعالیتونو": 3479,
      "▁کېده": 3480,
      "▁ګړ": 3481,
      "▁دوز": 3482,
      "▁مسئله": 3483,
      "هد": 3484,
      "▁ویلو": 3485,
      "▁عو": 3486,
      "عام": 3487,
      "نیزو": 3488,
      "▁کومو": 3489,
      "▁متع": 3490,
      "▁کراچ": 3491,
      "▁پدی": 3492,
      "▁خبرداری": 3493,
      "ټونو": 3494,
      "▁لیکن": 3495,
      "یتوب": 3496,
      "▁داخ": 3497,
      "▁اشغال": 3498,
      "▁ژورن": 3499,
      "▁دځ": 3500,
      "▁ترجمه": 3501,
      "سئ": 3502,
      "▁ځانگ": 3503,
      "▁خون": 3504,
      "▁نده": 3505,
      "▁ولرئ": 3506,
      "▁څېړنې": 3507,
      "▁سرت": 3508,
      "▁وزن": 3509,
      "▁کلک": 3510,
      "▁حرام": 3511,
      "▁تړل": 3512,
      "▁پرمخ": 3513,
      "▁انکار": 3514,
      "▁استخباراتی": 3515,
      "▁بت": 3516,
      "▁ګروپ": 3517,
      "▁حیران": 3518,
      "▁سرحد": 3519,
      "▁صنعت": 3520,
      "▁ولګ": 3521,
      "▁لسو": 3522,
      "▁فرمان": 3523,
      "ړیو": 3524,
      "▁مشری": 3525,
      "▁نواز": 3526,
      "پس": 3527,
      "▁کوریا": 3528,
      "▁لیکنې": 3529,
      "▁امین": 3530,
      "▁نجیب": 3531,
      "▁نغ": 3532,
      "▁خوندیتوب": 3533,
      "▁سختو": 3534,
      "▁ساتنه": 3535,
      "اینه": 3536,
      "▁کتنه": 3537,
      "رونو": 3538,
      "▁لنډه": 3539,
      "▁تلف": 3540,
      "▁کراچۍ": 3541,
      "▁مبارک": 3542,
      "▁اذ": 3543,
      "بان": 3544,
      "عون": 3545,
      "▁ژوبل": 3546,
      "▁وړل": 3547,
      "▁نظم": 3548,
      "▁مینې": 3549,
      "▁ستراتیژی": 3550,
      "▁روزنې": 3551,
      "▁حافظ": 3552,
      "▁بلکی": 3553,
      "ظه": 3554,
      "ګانې": 3555,
      "▁مجلس": 3556,
      "▁مذاکراتو": 3557,
      "ښتن": 3558,
      "▁تقریبا": 3559,
      "▁خلیلزاد": 3560,
      "▁محب": 3561,
      "▁وکتل": 3562,
      "▁غوښتی": 3563,
      "▁جرګه": 3564,
      "▁ملګر": 3565,
      "▁سرچینو": 3566,
      "▁توغ": 3567,
      "▁معیار": 3568,
      "▁لاسونه": 3569,
      "▁زمانه": 3570,
      "▁وزیراعظم": 3571,
      "▁خند": 3572,
      "▁فرصت": 3573,
      "▁نسل": 3574,
      "▁پنجاب": 3575,
      "▁ښځی": 3576,
      "▁نشه": 3577,
      "عب": 3578,
      "▁څرګندونې": 3579,
      "▁سرح": 3580,
      "▁دعوت": 3581,
      "غړ": 3582,
      "▁ایالت": 3583,
      "▁نفو": 3584,
      "▁دویمه": 3585,
      "▁همداراز": 3586,
      "▁تبلیغ": 3587,
      "▁ورد": 3588,
      "▁کین": 3589,
      "▁فیصله": 3590,
      "▁منل": 3591,
      "▁وړلو": 3592,
      "▁نوره": 3593,
      "▁غی": 3594,
      "▁بیلاب": 3595,
      "▁کړی\r\n": 3596,
      "ټونه": 3597,
      "اط": 3598,
      "وف": 3599,
      "▁راپورته": 3600,
      "▁ورڅخه": 3601,
      "▁مدا": 3602,
      "▁نفس": 3603,
      "▁پټه": 3604,
      "دله": 3605,
      "لاق": 3606,
      "نامه": 3607,
      "▁سلی": 3608,
      "▁اصولو": 3609,
      "▁ناروغی": 3610,
      "▁ماین": 3611,
      "▁اوږده": 3612,
      "رونه": 3613,
      "▁ییز": 3614,
      "▁سرم": 3615,
      "▁وهل": 3616,
      "▁نیوی": 3617,
      "▁دوئ": 3618,
      "▁غوښتونکی": 3619,
      "▁غلا": 3620,
      "▁مټ": 3621,
      "▁زند": 3622,
      "وتو": 3623,
      "▁ورسیږی": 3624,
      "▁انډ": 3625,
      "▁ظاهر": 3626,
      "▁چاودنې": 3627,
      "▁نوموړې": 3628,
      "▁ماه": 3629,
      "▁غوندې": 3630,
      "▁قیامت": 3631,
      "▁جاری": 3632,
      "▁ژوبله": 3633,
      "▁قبر": 3634,
      "▁دوامد": 3635,
      "▁قری": 3636,
      "▁بللی": 3637,
      "سبوک": 3638,
      "▁دورې": 3639,
      "▁چاپیریال": 3640,
      "▁غورځنګ": 3641,
      "▁کفر": 3642,
      "صب": 3643,
      "▁واض": 3644,
      "▁استو": 3645,
      "▁ۍ": 3646,
      "▁ناروغیو": 3647,
      "▁ورځپاڼه": 3648,
      "▁مخلو": 3649,
      "▁حده": 3650,
      "▁شد": 3651,
      "▁نویو": 3652,
      "▁مسجد": 3653,
      "▁ثږ": 3654,
      "ائز": 3655,
      "▁اووه": 3656,
      "▁موجوده": 3657,
      "موکر": 3658,
      "▁بریالیتوب": 3659,
      "▁خواړه": 3660,
      "▁اولس": 3661,
      "▁کوې": 3662,
      "▁فعل": 3663,
      "▁حقوقو": 3664,
      "دونکې": 3665,
      "کنه": 3666,
      "▁‌": 3667,
      "▁نشت": 3668,
      "▁رسولو": 3669,
      "▁سنت": 3670,
      "▁وسو": 3671,
      "ګاه": 3672,
      "▁کمه": 3673,
      "▁چوکاټ": 3674,
      "▁ولسمشرۍ": 3675,
      "▁حاضر": 3676,
      "▁ځنې": 3677,
      "▁نقل": 3678,
      "▁هار": 3679,
      "▁ځانم": 3680,
      "ځوی": 3681,
      "▁مدیر": 3682,
      "▁قاچا": 3683,
      "▁ذات": 3684,
      "▁لوړې": 3685,
      "مرکز": 3686,
      "▁صبر": 3687,
      "ضل": 3688,
      "الا": 3689,
      "▁خوی": 3690,
      "▁کمپیو": 3691,
      "▁پخوانیو": 3692,
      "▁وینه": 3693,
      "▁وژلو": 3694,
      "▁دپاکستان": 3695,
      "وندو": 3696,
      "▁حا": 3697,
      "▁لحاظ": 3698,
      "▁مرغه": 3699,
      "▁متو": 3700,
      "▁ارمان": 3701,
      "▁بیه": 3702,
      "▁ګڼو": 3703,
      "▁رهبر": 3704,
      "▁علت": 3705,
      "▁شرعی": 3706,
      "▁روسیه": 3707,
      "▁دغسې": 3708,
      "▁خوری": 3709,
      "▁منط": 3710,
      "▁ګوندونو": 3711,
      "شش": 3712,
      "▁پورت": 3713,
      "کوی": 3714,
      "▁رسنۍ": 3715,
      "▁روانی": 3716,
      "لینو": 3717,
      "▁معرفی": 3718,
      "▁قیمت": 3719,
      "راج": 3720,
      "▁درم": 3721,
      "▁مهمو": 3722,
      "کیو": 3723,
      "▁بندیانو": 3724,
      "▁موندل": 3725,
      "▁ښودل": 3726,
      "▁کچې": 3727,
      "▁تعالئ": 3728,
      "▁خپاره": 3729,
      "ثی": 3730,
      "▁یواز": 3731,
      "▁قلم": 3732,
      "▁درملنې": 3733,
      "▁الوتکې": 3734,
      "▁راتلو": 3735,
      "▁ویاړ": 3736,
      "▁لارښود": 3737,
      "▁طر": 3738,
      "▁شیطان": 3739,
      "▁ماموریت": 3740,
      "کونه": 3741,
      "▁سرچینه": 3742,
      "▁توری": 3743,
      "▁باچا": 3744,
      "▁ثب": 3745,
      "ډا": 3746,
      "تیری": 3747,
      "▁آسم": 3748,
      "▁خطرناک": 3749,
      "▁افسر": 3750,
      "▁بلی": 3751,
      "▁الأ": 3752,
      "▁محدو": 3753,
      "▁هیوادونه": 3754,
      "▁کاک": 3755,
      "▁وایم": 3756,
      "▁نوماند": 3757,
      "▁باند": 3758,
      "▁اتحادی": 3759,
      "▁تښت": 3760,
      "▁ورکړو": 3761,
      "▁نکاح": 3762,
      "▁الر": 3763,
      "▁قوانینو": 3764,
      "▁اسرائی": 3765,
      "▁صالح": 3766,
      "▁سلاکار": 3767,
      "شتو": 3768,
      "▁ژمن": 3769,
      "▁برېښنا": 3770,
      "ویت": 3771,
      "▁اکبر": 3772,
      "▁واړ": 3773,
      "▁ډوله": 3774,
      "▁مشوره": 3775,
      "پال": 3776,
      "▁ناستې": 3777,
      "▁چیرته": 3778,
      "▁ید": 3779,
      "اتور": 3780,
      "▁غند": 3781,
      "پۍ": 3782,
      "▁عاد": 3783,
      "▁عبدالرح": 3784,
      "▁رایې": 3785,
      "حم": 3786,
      "▁انسانان": 3787,
      "▁کپ": 3788,
      "▁نومبر": 3789,
      "▁سرغړ": 3790,
      "▁پایلو": 3791,
      "▁اخیستلو": 3792,
      "▁پېړۍ": 3793,
      "▁لومړیو": 3794,
      "▁ماشین": 3795,
      "▁ډاګه": 3796,
      "بع": 3797,
      "▁مجبور": 3798,
      "▁نشو": 3799,
      "▁ورز": 3800,
      "▁بدی": 3801,
      "▁عادت": 3802,
      "▁شنبه": 3803,
      "▁الخ": 3804,
      "▁څښ": 3805,
      "▁مرکزونو": 3806,
      "▁مسکو": 3807,
      "▁نیا": 3808,
      "▁پیښه": 3809,
      "▁تفصیل": 3810,
      "▁ونډه": 3811,
      "▁حیوان": 3812,
      "▁فتح": 3813,
      "▁شکر": 3814,
      "▁وتلی": 3815,
      "▁ده\r\n": 3816,
      "▁پروژو": 3817,
      "▁خبرپاڼه": 3818,
      "▁ښای": 3819,
      "دیږی": 3820,
      "▁پوځیانو": 3821,
      "زمې": 3822,
      "▁یادونې": 3823,
      "▁انګل": 3824,
      "▁رسېدو": 3825,
      "▁منظم": 3826,
      "▁چاته": 3827,
      "▁چټ": 3828,
      "کش": 3829,
      "▁تکرار": 3830,
      "ریل": 3831,
      "▁داود": 3832,
      "▁اخیستې": 3833,
      "▁هرکلی": 3834,
      "▁لرل": 3835,
      "▁لیدنه": 3836,
      "کره": 3837,
      "▁پوهنې": 3838,
      "▁وظ": 3839,
      "▁ساین": 3840,
      "▁فکری": 3841,
      "▁اوله": 3842,
      "▁قوله": 3843,
      "بد": 3844,
      "▁ذهنی": 3845,
      "▁ضل": 3846,
      "حان": 3847,
      "▁اروا": 3848,
      "▁تودو": 3849,
      "▁شهادت": 3850,
      "▁ورنه": 3851,
      "لیفون": 3852,
      "▁موقعیت": 3853,
      "▁مېرمن": 3854,
      "▁بنی": 3855,
      "▁باران": 3856,
      "▁واست": 3857,
      "▁مکت": 3858,
      "▁ټاکلی": 3859,
      "▁اهد": 3860,
      "علوم": 3861,
      "رار": 3862,
      "▁انقلاب": 3863,
      "▁سرحدی": 3864,
      "▁ورت": 3865,
      "نان": 3866,
      "▁بندیان": 3867,
      "▁ورغ": 3868,
      "ړا": 3869,
      "▁لټه": 3870,
      "▁لومړنۍ": 3871,
      "▁پکتیا": 3872,
      "▁اوږدې": 3873,
      "▁نازل": 3874,
      "▁نښ": 3875,
      "▁ویره": 3876,
      "▁اکتوبر": 3877,
      "ادې": 3878,
      "▁الفاظ": 3879,
      "▁محر": 3880,
      "▁پولې": 3881,
      "زر": 3882,
      "▁هدایت": 3883,
      "▁اګست": 3884,
      "▁خدماتو": 3885,
      "▁تخنیکی": 3886,
      "▁توره": 3887,
      "▁راوړل": 3888,
      "▁مگر": 3889,
      "▁اویا": 3890,
      "▁تکلیف": 3891,
      "▁ډون": 3892,
      "▁طا": 3893,
      "وما": 3894,
      "خلئ": 3895,
      "ارتی": 3896,
      "▁مسله": 3897,
      "▁ښکلا": 3898,
      "▁ستره": 3899,
      "▁سیمی": 3900,
      "▁ستړی": 3901,
      "▁څښتن": 3902,
      "یلو": 3903,
      "▁ښکته": 3904,
      "▁فرهنګ": 3905,
      "▁جې": 3906,
      "▁فوځ": 3907,
      "▁پره": 3908,
      "▁اټکل": 3909,
      "اذ": 3910,
      "▁جهادی": 3911,
      "▁الوتکو": 3912,
      "▁شپږو": 3913,
      "▁څلورم": 3914,
      "▁رف": 3915,
      "▁ورځنی": 3916,
      "▁مولانا": 3917,
      "▁شویدی": 3918,
      "▁ټویټر": 3919,
      "▁ګټور": 3920,
      "▁دروازې": 3921,
      "▁جولای": 3922,
      "ګا": 3923,
      "▁منظور": 3924,
      "▁پالیسی": 3925,
      "▁پښې": 3926,
      "▁خالی": 3927,
      "▁ویجا": 3928,
      "▁کورونا": 3929,
      "زانو": 3930,
      "افت": 3931,
      "کونو": 3932,
      "▁راځ": 3933,
      "ډیا": 3934,
      "▁اوت": 3935,
      "▁ستوری": 3936,
      "▁عقیده": 3937,
      "▁نښې": 3938,
      "سمبر": 3939,
      "ړئ": 3940,
      "▁فاس": 3941,
      "ټبال": 3942,
      "▁گډ": 3943,
      "▁راپورونه": 3944,
      "▁ورکړئ": 3945,
      "▁ټولنو": 3946,
      "▁افر": 3947,
      "▁وړیا": 3948,
      "▁ټاکنې": 3949,
      "▁لیږد": 3950,
      "▁پروژه": 3951,
      "▁کونکو": 3952,
      "▁ازادۍ": 3953,
      "▁یخ": 3954,
      "▁یاغی": 3955,
      "یایی": 3956,
      "▁میلیون": 3957,
      "▁سرتېری": 3958,
      "▁بالا": 3959,
      "▁چېرته": 3960,
      "▁چاپې": 3961,
      "▁واقعیت": 3962,
      "▁الد": 3963,
      "▁معی": 3964,
      "▁روحانی": 3965,
      "▁ګاونډی": 3966,
      "▁معامله": 3967,
      "▁مرغ": 3968,
      "▁غوښتنو": 3969,
      "▁قاچاق": 3970,
      "▁وغواړی": 3971,
      "اتیک": 3972,
      "▁امنیه": 3973,
      "▁غټ": 3974,
      "▁توا": 3975,
      "▁اوی": 3976,
      "▁روم": 3977,
      "▁پنجشنبې": 3978,
      "▁بېشکه": 3979,
      "▁لازم": 3980,
      "بلۍ": 3981,
      "عات": 3982,
      "▁فرانس": 3983,
      "▁قدم": 3984,
      "▁کوره": 3985,
      "▁ژور": 3986,
      "انیو": 3987,
      "▁واخیست": 3988,
      "▁حکمت": 3989,
      "▁ووایه": 3990,
      "▁خدائ": 3991,
      "▁اخلاقی": 3992,
      "ریه": 3993,
      "▁لویدیځ": 3994,
      "▁روژې": 3995,
      "▁أن": 3996,
      "▁لیرې": 3997,
      "▁غاښ": 3998,
      "▁مهارت": 3999,
      "▁نزد": 4000,
      "▁غازی": 4001,
      "▁اوکه": 4002,
      "▁جملې": 4003,
      "▁افرا": 4004,
      "▁امتیا": 4005,
      "▁مخالفینو": 4006,
      "ریکا": 4007,
      "▁جنایت": 4008,
      "مانی": 4009,
      "▁علاوه": 4010,
      "▁سنګ": 4011,
      "▁حقوق": 4012,
      "▁ښکې": 4013,
      "▁پیش": 4014,
      "▁شاید": 4015,
      "▁عث": 4016,
      "▁نهه": 4017,
      "▁انګلستان": 4018,
      "▁ودر": 4019,
      "▁ښوونکی": 4020,
      "مون": 4021,
      "▁ډالره": 4022,
      "▁نوښت": 4023,
      "▁درلودل": 4024,
      "▁اضافه": 4025,
      "باط": 4026,
      "▁مثلا": 4027,
      "▁ډزو": 4028,
      "▁وحد": 4029,
      "▁ځپل": 4030,
      "تیار": 4031,
      "سد": 4032,
      "▁جمله": 4033,
      "▁دسی": 4034,
      "▁ددغو": 4035,
      "▁ټوپ": 4036,
      "▁لع": 4037,
      "▁تذ": 4038,
      "▁حالات": 4039,
      "▁لګول": 4040,
      "▁سرتیری": 4041,
      "▁کوی\r\n": 4042,
      "▁نصی": 4043,
      "▁تمرین": 4044,
      "▁مقابله": 4045,
      "یره": 4046,
      "▁پرله": 4047,
      "▁همی": 4048,
      "▁واخلئ": 4049,
      "ورد": 4050,
      "اؤ": 4051,
      "▁سپارښت": 4052,
      "▁لېږد": 4053,
      "▁اندېښنه": 4054,
      "▁اعتم": 4055,
      "▁سوات": 4056,
      "▁موقع": 4057,
      "▁اسمان": 4058,
      "▁بدله": 4059,
      "رلی": 4060,
      "▁میرمن": 4061,
      "▁زړونو": 4062,
      "ستانه": 4063,
      "▁وله": 4064,
      "▁ظرف": 4065,
      "▁کاروب": 4066,
      "انیې": 4067,
      "▁یکشنبې": 4068,
      "▁آرام": 4069,
      "زۍ": 4070,
      "▁لت": 4071,
      "▁بچ": 4072,
      "▁نشر": 4073,
      "▁امید": 4074,
      "▁کاروی": 4075,
      "انده": 4076,
      "▁مناف": 4077,
      "▁ټوک": 4078,
      "▁فرهنګی": 4079,
      "▁ګامونه": 4080,
      "مند": 4081,
      "ېدل": 4082,
      "▁رضا": 4083,
      "▁بعض": 4084,
      "▁سته": 4085,
      "▁صدراعظم": 4086,
      "ځکه": 4087,
      "▁بول": 4088,
      "▁دره": 4089,
      "▁مامور": 4090,
      "▁وئی": 4091,
      "▁افت": 4092,
      "▁موافقه": 4093,
      "▁تشریح": 4094,
      "▁تأ": 4095,
      "▁عزیز": 4096,
      "▁اجتم": 4097,
      "▁کارکوونکی": 4098,
      "▁همغه": 4099,
      "▁پیژندل": 4100,
      "▁کیسې": 4101,
      "▁خوشی": 4102,
      "▁علاقه": 4103,
      "▁رکو": 4104,
      "▁احتجاج": 4105,
      "▁مجمو": 4106,
      "▁کود": 4107,
      "▁گوند": 4108,
      "لری": 4109,
      "▁خوړو": 4110,
      "▁اخر": 4111,
      "▁زیارت": 4112,
      "▁واکمنۍ": 4113,
      "▁کړنو": 4114,
      "▁فعالیتونه": 4115,
      "▁ځیر": 4116,
      "▁دروازه": 4117,
      "حو": 4118,
      "▁میو": 4119,
      "▁ولاړه": 4120,
      "▁وختونو": 4121,
      "ېد": 4122,
      "▁وره": 4123,
      "▁خوښی": 4124,
      "▁دمو": 4125,
      "▁ټک": 4126,
      "وونکی": 4127,
      "▁ماده": 4128,
      "اروی": 4129,
      "▁هوښی": 4130,
      "بیح": 4131,
      "▁ځنګ": 4132,
      "▁جائز": 4133,
      "▁نوری": 4134,
      "▁اماراتو": 4135,
      "▁سایټ": 4136,
      "لمانی": 4137,
      "▁شرایط": 4138,
      "▁اسانتیا": 4139,
      "▁لند": 4140,
      "▁اتو": 4141,
      "▁درملنه": 4142,
      "▁انګلی": 4143,
      "▁مشرو": 4144,
      "▁ټایم": 4145,
      "▁ناڅا": 4146,
      "▁محدود": 4147,
      "▁بحران": 4148,
      "▁فضا": 4149,
      "▁تحلیل": 4150,
      "▁فبر": 4151,
      "▁تشکیل": 4152,
      "▁رایه": 4153,
      "▁غاړې": 4154,
      "▁جگړه": 4155,
      "▁پینځ": 4156,
      "▁کرښې": 4157,
      "▁پران": 4158,
      "▁پېل": 4159,
      "▁اوسیدونکی": 4160,
      "▁حاکم": 4161,
      "▁رپورټ": 4162,
      "▁کلیو": 4163,
      "▁عامې": 4164,
      "رۍ": 4165,
      "▁نیویارک": 4166,
      "▁بخښ": 4167,
      "▁اصول": 4168,
      "▁لیدو": 4169,
      "▁اکثره": 4170,
      "▁خلاصه": 4171,
      "لف": 4172,
      "▁کیده": 4173,
      "▁تمرکز": 4174,
      "▁احم": 4175,
      "کیم": 4176,
      "▁مسایلو": 4177,
      "▁فقه": 4178,
      "▁وګوری": 4179,
      "▁جنوب": 4180,
      "▁رایو": 4181,
      "یدا": 4182,
      "ټین": 4183,
      "▁څرګندونو": 4184,
      "▁پوسټ": 4185,
      "ایع": 4186,
      "قۍ": 4187,
      "▁پیښور": 4188,
      "▁دوامداره": 4189,
      "▁ناکام": 4190,
      "▁کورونه": 4191,
      "اینې": 4192,
      "لوې": 4193,
      "▁منلی": 4194,
      "▁ډلی": 4195,
      "▁پداسې": 4196,
      "ستانو": 4197,
      "▁رسولی": 4198,
      "▁اندېښنې": 4199,
      "ستا": 4200,
      "▁فوټبال": 4201,
      "▁لرلو": 4202,
      "▁سولی": 4203,
      "▁صیب": 4204,
      "▁فارم": 4205,
      "▁مفه": 4206,
      "▁سیال": 4207,
      "▁چپ": 4208,
      "▁جین": 4209,
      "▁لاریون": 4210,
      "▁پکښې": 4211,
      "▁ووا": 4212,
      "▁فای": 4213,
      "ګن": 4214,
      "▁وزیرانو": 4215,
      "▁روه": 4216,
      "اهم": 4217,
      "▁نفوذ": 4218,
      "▁والا": 4219,
      "▁پیښو": 4220,
      "▁ویش": 4221,
      "نډې": 4222,
      "▁کمپیوټر": 4223,
      "▁توجه": 4224,
      "ویو": 4225,
      "▁پېغ": 4226,
      "▁وران": 4227,
      "▁احتیا": 4228,
      "▁کفارو": 4229,
      "▁کارکوونکو": 4230,
      "▁بریښن": 4231,
      "▁وټاکل": 4232,
      "▁غربی": 4233,
      "▁تجارت": 4234,
      "▁وفرمایل": 4235,
      "▁سمد": 4236,
      "▁علومو": 4237,
      "▁کلکه": 4238,
      "▁ځایونه": 4239,
      "▁وموند": 4240,
      "▁قه": 4241,
      "فس": 4242,
      "▁اچول": 4243,
      "▁آز": 4244,
      "▁عظیم": 4245,
      "▁ناد": 4246,
      "▁ذری": 4247,
      "▁خاورو": 4248,
      "▁جواز": 4249,
      "فیق": 4250,
      "کانو": 4251,
      "▁کاف": 4252,
      "انیانو": 4253,
      "شنل": 4254,
      "دوی": 4255,
      "▁راور": 4256,
      "▁کرم": 4257,
      "▁پخ": 4258,
      "▁تعلیمی": 4259,
      "▁سمندر": 4260,
      "▁ثابته": 4261,
      "▁بوت": 4262,
      "▁ییزو": 4263,
      "▁مطالعه": 4264,
      "▁رخص": 4265,
      "نئ": 4266,
      "▁متحد": 4267,
      "▁روحی": 4268,
      "انیه": 4269,
      "▁ارام": 4270,
      "▁بیخی": 4271,
      "▁اطلاعاتو": 4272,
      "▁حاکمیت": 4273,
      "▁اسمبلۍ": 4274,
      "▁وعده": 4275,
      "▁امتیاز": 4276,
      "▁لدې": 4277,
      "▁بچی": 4278,
      "▁کښۍ": 4279,
      "▁ظالم": 4280,
      "باری": 4281,
      "▁خوراکی": 4282,
      "▁احتر": 4283,
      "▁خواته": 4284,
      "▁فیصده": 4285,
      "نوان": 4286,
      "ائل": 4287,
      "▁عامو": 4288,
      "▁وکی": 4289,
      "▁خارجی": 4290,
      "▁تجه": 4291,
      "▁توغندی": 4292,
      "▁اسی": 4293,
      "▁اکثریت": 4294,
      "دے": 4295,
      "زوی": 4296,
      "▁رار": 4297,
      "▁پلازمې": 4298,
      "زاره": 4299,
      "▁افغانۍ": 4300,
      "▁اعظم": 4301,
      "▁اسناد": 4302,
      "▁پریږدی": 4303,
      "▁نمای": 4304,
      "▁شاهد": 4305,
      "▁لاهم": 4306,
      "▁خوار": 4307,
      "▁دص": 4308,
      "▁هوکړه": 4309,
      "تابه": 4310,
      "▁سلا": 4311,
      "سمه": 4312,
      "▁فزی": 4313,
      "▁معاش": 4314,
      "▁بیشکه": 4315,
      "غیره": 4316,
      "▁لگ": 4317,
      "ټری": 4318,
      "▁خوشحاله": 4319,
      "▁یس": 4320,
      "▁ساحه": 4321,
      "▁سپوږ": 4322,
      "▁آنلاین": 4323,
      "▁میاشتی": 4324,
      "▁سرتېرو": 4325,
      "سوس": 4326,
      "▁وفات": 4327,
      "▁رع": 4328,
      "▁فرق": 4329,
      "▁منه": 4330,
      "▁دوهمه": 4331,
      "▁لمریز": 4332,
      "▁خوښې": 4333,
      "▁موټرو": 4334,
      "▁دوران": 4335,
      "▁دلا": 4336,
      "▁مزد": 4337,
      "▁ابی": 4338,
      "▁ټایمز": 4339,
      "▁ورپسې": 4340,
      "▁کرو": 4341,
      "▁روزنه": 4342,
      "▁زیاتی": 4343,
      "▁ډزې": 4344,
      "▁اوچت": 4345,
      "▁ځانمرګی": 4346,
      "لوب": 4347,
      "▁څارن": 4348,
      "▁محبت": 4349,
      "▁عاج": 4350,
      "▁بښ": 4351,
      "▁کونړ": 4352,
      "سمې": 4353,
      "▁عباس": 4354,
      "▁پوله": 4355,
      "ابت": 4356,
      "ودی": 4357,
      "ویس": 4358,
      "▁زمان": 4359,
      "▁څا": 4360,
      "▁راغلل": 4361,
      "▁تورونه": 4362,
      "▁غالب": 4363,
      "قوط": 4364,
      "▁منځنی": 4365,
      "▁علامه": 4366,
      "▁افریقا": 4367,
      "▁تاثیر": 4368,
      "▁پوهنځی": 4369,
      "▁ریس": 4370,
      "▁ازب": 4371,
      "▁پیداک": 4372,
      "▁کلتوری": 4373,
      "▁زرګونو": 4374,
      "▁القاعده": 4375,
      "▁سرته": 4376,
      "▁زیار": 4377,
      "▁سترې": 4378,
      "▁دغی": 4379,
      "▁جامې": 4380,
      "▁ایټ": 4381,
      "▁کوربه": 4382,
      "▁گل": 4383,
      "▁وباسی": 4384,
      "ښوده": 4385,
      "شاد": 4386,
      "▁شهرت": 4387,
      "▁نرخ": 4388,
      "لېږی": 4389,
      "▁الرحمن": 4390,
      "▁مجب": 4391,
      "ضرت": 4392,
      "▁ونې": 4393,
      "▁مسؤلیت": 4394,
      "ئن": 4395,
      "▁پټې": 4396,
      "▁کندز": 4397,
      "▁اضافی": 4398,
      "▁مزار": 4399,
      "والې": 4400,
      "▁حملو": 4401,
      "▁پرېکړې": 4402,
      "▁کمال": 4403,
      "▁وختونه": 4404,
      "خیل": 4405,
      "▁اړیکی": 4406,
      "▁ونو": 4407,
      "▁احسان": 4408,
      "▁پرمختل": 4409,
      "▁تاسیس": 4410,
      "▁مهاله": 4411,
      "زن": 4412,
      "دره": 4413,
      "▁سعید": 4414,
      "▁اشنا": 4415,
      "▁کوټه": 4416,
      "ثار": 4417,
      "ولئ": 4418,
      "▁لیری": 4419,
      "▁مقاله": 4420,
      "▁تجهیز": 4421,
      "▁منځته": 4422,
      "▁زد": 4423,
      "خاص": 4424,
      "▁سمون": 4425,
      "▁شمېره": 4426,
      "▁ملاقات": 4427,
      "احت": 4428,
      "▁غرب": 4429,
      "▁نظره": 4430,
      "▁رنګه": 4431,
      "▁قبل": 4432,
      "واده": 4433,
      "▁پوهانو": 4434,
      "▁سوریه": 4435,
      "ائید": 4436,
      "▁کرې": 4437,
      "لډ": 4438,
      "▁استازیتوب": 4439,
      "راء": 4440,
      "▁ناس": 4441,
      "▁رز": 4442,
      "▁ګوم": 4443,
      "▁گو": 4444,
      "حال": 4445,
      "▁راغله": 4446,
      "▁وظی": 4447,
      "▁ژغورنې": 4448,
      "▁کتو": 4449,
      "▁شرکتونو": 4450,
      "▁میز": 4451,
      "اډی": 4452,
      "▁همه": 4453,
      "▁انټرنی": 4454,
      "▁میک": 4455,
      "▁کرنې": 4456,
      "▁پنځوس": 4457,
      "▁مونځ": 4458,
      "▁قاموس": 4459,
      "کښې": 4460,
      "▁ژب": 4461,
      "عد": 4462,
      "▁خټک": 4463,
      "▁فرمایلی": 4464,
      "▁ممکنه": 4465,
      "▁اعتماد": 4466,
      "▁بندې": 4467,
      "▁جوړیږی": 4468,
      "▁نای": 4469,
      "▁عیس": 4470,
      "▁تشدد": 4471,
      "ڼل": 4472,
      "▁حکمتیار": 4473,
      "ډل": 4474,
      "▁دیموکر": 4475,
      "▁ځلی": 4476,
      "▁مفهوم": 4477,
      "▁غرض": 4478,
      "▁سپې": 4479,
      "لول": 4480,
      "▁وحدت": 4481,
      "قر": 4482,
      "▁مهاجر": 4483,
      "▁ګانو": 4484,
      "لیو": 4485,
      "جم": 4486,
      "▁لورې": 4487,
      "▁منډو": 4488,
      "▁انف": 4489,
      "▁پولیو": 4490,
      "▁پسی": 4491,
      "▁تغیر": 4492,
      "▁بلخوا": 4493,
      "▁الش": 4494,
      "▁روپۍ": 4495,
      "▁الهی": 4496,
      "▁خلګو": 4497,
      "▁کوټې": 4498,
      "▁وموم": 4499,
      "▁یمن": 4500,
      "▁چټک": 4501,
      "▁څنگه": 4502,
      "▁پایه": 4503,
      "▁دط": 4504,
      "▁سیر": 4505,
      "▁وېش": 4506,
      "▁کلونه": 4507,
      "▁خدمتونو": 4508,
      "▁ښاری": 4509,
      "▁لد": 4510,
      "▁ضرور": 4511,
      "▁لیست": 4512,
      "▁خپلواکۍ": 4513,
      "▁ساعتونو": 4514,
      "▁وزی": 4515,
      "▁ډیمو": 4516,
      "▁باوری": 4517,
      "▁پت": 4518,
      "▁سقوط": 4519,
      "ونګ": 4520,
      "▁خوږ": 4521,
      "▁توی": 4522,
      "▁نسخه": 4523,
      "کنالوژۍ": 4524,
      "▁وروستو": 4525,
      "▁ساعته": 4526,
      "▁هجری": 4527,
      "▁لیکلو": 4528,
      "ښیی": 4529,
      "▁دربار": 4530,
      "▁پرېږدی": 4531,
      "▁راښک": 4532,
      "▁رسېږی": 4533,
      "قق": 4534,
      "▁افغانستانه": 4535,
      "▁رحمان": 4536,
      "▁احتمال": 4537,
      "▁خوځ": 4538,
      "▁ترکیب": 4539,
      "عر": 4540,
      "▁یوم": 4541,
      "▁عال": 4542,
      "ږلی": 4543,
      "وړتیا": 4544,
      "▁بک": 4545,
      "▁ثواب": 4546,
      "▁انرژی": 4547,
      "▁اترې": 4548,
      "▁عشق": 4549,
      "▁لیدلو": 4550,
      "▁زخمی": 4551,
      "▁آسیا": 4552,
      "▁رل": 4553,
      "▁وایرس": 4554,
      "▁مالیې": 4555,
      "▁وبا": 4556,
      "▁خپرولو": 4557,
      "▁تجربې": 4558,
      "ادم": 4559,
      "میل": 4560,
      "▁راپورونو": 4561,
      "▁تصویب": 4562,
      "▁دالله": 4563,
      "لوه": 4564,
      "▁تصور": 4565,
      "▁بغیر": 4566,
      "▁ظرفیت": 4567,
      "▁دیوال": 4568,
      "▁یوځل": 4569,
      "▁راشد": 4570,
      "▁جگړې": 4571,
      "دارۍ": 4572,
      "▁ټولګی": 4573,
      "▁الل": 4574,
      "▁تسلیم": 4575,
      "▁تاک": 4576,
      "▁غره": 4577,
      "چر": 4578,
      "▁وښ": 4579,
      "▁ځانګړتیا": 4580,
      "▁غرونو": 4581,
      "▁تخت": 4582,
      "▁یقین": 4583,
      "▁زغم": 4584,
      "▁راوت": 4585,
      "▁تیاره": 4586,
      "▁بوی": 4587,
      "▁نومی": 4588,
      "▁سمدستی": 4589,
      "▁تال": 4590,
      "▁ټر": 4591,
      "▁غوړ": 4592,
      "خپل": 4593,
      "▁مېرمنې": 4594,
      "صار": 4595,
      "▁دخل": 4596,
      "▁اسرائیلو": 4597,
      "▁مطلق": 4598,
      "▁ډه": 4599,
      "▁بجې": 4600,
      "▁زمری": 4601,
      "▁ملگرو": 4602,
      "▁دوب": 4603,
      "▁جماعت": 4604,
      "▁شاته": 4605,
      "کیه": 4606,
      "▁هیڅوک": 4607,
      "▁ترکیه": 4608,
      "▁ایج": 4609,
      "▁کشمیر": 4610,
      "▁شیعه": 4611,
      "▁همکاریو": 4612,
      "▁ترمینځ": 4613,
      "▁بنسټونو": 4614,
      "▁لوګر": 4615,
      "▁مطرح": 4616,
      "شوی": 4617,
      "▁قامی": 4618,
      "▁لندن": 4619,
      "▁لرله": 4620,
      "▁تصدیق": 4621,
      "▁څانګه": 4622,
      "▁طبیعت": 4623,
      "▁مره": 4624,
      "▁نیمایی": 4625,
      "▁جذب": 4626,
      "▁دما": 4627,
      "▁پکښی": 4628,
      "▁اسانۍ": 4629,
      "▁اسرایی": 4630,
      "▁ساه": 4631,
      "▁کاغ": 4632,
      "▁فارسی": 4633,
      "▁بلنه": 4634,
      "▁کوشش": 4635,
      "▁ایالتونو": 4636,
      "▁اصلاحاتو": 4637,
      "▁صادق": 4638,
      "▁کچ": 4639,
      "▁تیم": 4640,
      "▁کړیدی": 4641,
      "دنې": 4642,
      "▁مسوولیت": 4643,
      "ضر": 4644,
      "راغ": 4645,
      "صورت": 4646,
      "▁دهغوی": 4647,
      "▁هیر": 4648,
      "▁پوهېږی": 4649,
      "▁سلس": 4650,
      "▁ورغلی": 4651,
      "▁کیلو": 4652,
      "▁فرمائی": 4653,
      "▁حقیقی": 4654,
      "▁نزدې": 4655,
      "▁تورو": 4656,
      "▁استخباراتو": 4657,
      "▁جنورۍ": 4658,
      "▁پراته": 4659,
      "▁کوټ": 4660,
      "▁وهلو": 4661,
      "اکو": 4662,
      "▁عاش": 4663,
      "▁اری": 4664,
      "▁نصب": 4665,
      "▁منځنۍ": 4666,
      "سوب": 4667,
      "▁کیل": 4668,
      "▁پوت": 4669,
      "▁ځانګړو": 4670,
      "صا": 4671,
      "▁مرکزونه": 4672,
      "▁بخت": 4673,
      "▁میراث": 4674,
      "▁تهران": 4675,
      "▁نخ": 4676,
      "روس": 4677,
      "نامې": 4678,
      "▁سکول": 4679,
      "قول": 4680,
      "▁وے": 4681,
      "▁بره": 4682,
      "ندۍ": 4683,
      "▁تېری": 4684,
      "▁فاب": 4685,
      "▁طلاق": 4686,
      "▁وارد": 4687,
      "یاء": 4688,
      "▁کندو": 4689,
      "▁کمپنۍ": 4690,
      "▁یواځی": 4691,
      "▁بیلابیلو": 4692,
      "▁ځائ": 4693,
      "▁څرنګ": 4694,
      "▁احترام": 4695,
      "▁مشرتابه": 4696,
      "▁حیثیت": 4697,
      "▁مخلوق": 4698,
      "▁موندلی": 4699,
      "▁بېلو": 4700,
      "▁ځپلو": 4701,
      "▁بنیاد": 4702,
      "▁میل": 4703,
      "ارټ": 4704,
      "▁خېبر": 4705,
      "▁لومړیتوب": 4706,
      "بیت": 4707,
      "▁ځانته": 4708,
      "▁عمده": 4709,
      "▁تاته": 4710,
      "▁دهغو": 4711,
      "▁مهاجرو": 4712,
      "▁ډوب": 4713,
      "▁خلافت": 4714,
      "▁قرارداد": 4715,
      "▁فراه": 4716,
      "▁اقدامات": 4717,
      "▁چاره": 4718,
      "▁هوټل": 4719,
      "▁ګاز": 4720,
      "▁ژمی": 4721,
      "▁ناف": 4722,
      "▁دوستم": 4723,
      "▁ادی": 4724,
      "▁پخوانۍ": 4725,
      "څوک": 4726,
      "ذه": 4727,
      "▁هال": 4728,
      "▁اسرا": 4729,
      "▁غونډو": 4730,
      "▁ډیموکر": 4731,
      "▁سټی": 4732,
      "▁داسلام": 4733,
      "▁لمن": 4734,
      "▁ساینس": 4735,
      "▁صوبې": 4736,
      "▁ناخ": 4737,
      "▁سرې": 4738,
      "▁بدخ": 4739,
      "▁دید": 4740,
      "کاوی": 4741,
      "▁لوستل": 4742,
      "▁محرم": 4743,
      "ترول": 4744,
      "▁پیلو": 4745,
      "▁عرف": 4746,
      "▁فن": 4747,
      "▁سلطن": 4748,
      "▁هسی": 4749,
      "▁ځاے": 4750,
      "اسلام": 4751,
      "بود": 4752,
      "واس": 4753,
      "عتی": 4754,
      "▁ادبیاتو": 4755,
      "▁مرو": 4756,
      "▁نادر": 4757,
      "▁قو": 4758,
      "کک": 4759,
      "واف": 4760,
      "▁مړینې": 4761,
      "▁ساری": 4762,
      "▁بېلا": 4763,
      "خم": 4764,
      "سمی": 4765,
      "باع": 4766,
      "▁مادی": 4767,
      "▁نېټې": 4768,
      "▁پېر": 4769,
      "▁یوسی": 4770,
      "اون": 4771,
      "▁آم": 4772,
      "▁مداخ": 4773,
      "▁مخابر": 4774,
      "▁جوړېدو": 4775,
      "▁بریښنا": 4776,
      "▁موخې": 4777,
      "صله": 4778,
      "مدن": 4779,
      "▁حبیب": 4780,
      "بوط": 4781,
      "سون": 4782,
      "▁ودرې": 4783,
      "▁وژنه": 4784,
      "▁مومی": 4785,
      "▁آزادی": 4786,
      "▁څرګندوی": 4787,
      "▁دندو": 4788,
      "▁تلل": 4789,
      "▁متوجه": 4790,
      "▁داچې": 4791,
      "حب": 4792,
      "▁لاد": 4793,
      "▁مناسبت": 4794,
      "نف": 4795,
      "▁حرف": 4796,
      "▁جمعیت": 4797,
      "ارونه": 4798,
      "▁باج": 4799,
      "عال": 4800,
      "ؤمن": 4801,
      "برو": 4802,
      "▁مشخص": 4803,
      "▁طرفه": 4804,
      "▁هیچا": 4805,
      "▁ایل": 4806,
      "▁محترم": 4807,
      "▁نیمګ": 4808,
      "▁وسلوالو": 4809,
      "عاتی": 4810,
      "▁تائید": 4811,
      "▁ذمه": 4812,
      "▁کاناډ": 4813,
      "▁بریتانیا": 4814,
      "▁څېړنه": 4815,
      "نځی": 4816,
      "▁وسات": 4817,
      "▁لسګونه": 4818,
      "▁بودی": 4819,
      "▁صلاحیت": 4820,
      "▁اولی": 4821,
      "▁توافق": 4822,
      "▁لرونکو": 4823,
      "▁زلز": 4824,
      "▁شج": 4825,
      "داء": 4826,
      "اهر": 4827,
      "▁سترګه": 4828,
      "▁تړلې": 4829,
      "▁بدو": 4830,
      "▁رکوع": 4831,
      "▁پوځیان": 4832,
      "▁ګردو": 4833,
      "▁موخو": 4834,
      "▁کد": 4835,
      "▁واخیستل": 4836,
      "▁دقیق": 4837,
      "▁لټون": 4838,
      "▁اودس": 4839,
      "▁ساتلی": 4840,
      "▁ووې": 4841,
      "▁سای": 4842,
      "▁ژبی": 4843,
      "▁جلد": 4844,
      "ظر": 4845,
      "▁پول": 4846,
      "▁سترو": 4847,
      "افغانی": 4848,
      "رفت": 4849,
      "▁سمند": 4850,
      "▁ښودلی": 4851,
      "▁تصمیم": 4852,
      "▁پلټنې": 4853,
      "▁عصری": 4854,
      "▁طرحه": 4855,
      "تره": 4856,
      "▁غف": 4857,
      "▁عدلی": 4858,
      "▁منصور": 4859,
      "▁جاپان": 4860,
      "ګرې": 4861,
      "▁علماء": 4862,
      "▁وغور": 4863,
      "▁اجتماعی": 4864,
      "ها": 4865,
      "▁بندیزونه": 4866,
      "پیل": 4867,
      "▁ثبوت": 4868,
      "▁ټکر": 4869,
      "کتر": 4870,
      "▁کنډ": 4871,
      "▁تجارتی": 4872,
      "▁هیوادو": 4873,
      "▁بست": 4874,
      "▁رسیدو": 4875,
      "▁حلال": 4876,
      "▁شتم": 4877,
      "ندل": 4878,
      "▁اړخه": 4879,
      "کښ": 4880,
      "▁پردی": 4881,
      "▁پاڼو": 4882,
      "وئ": 4883,
      "وین": 4884,
      "▁نجلۍ": 4885,
      "▁ارزښتونو": 4886,
      "▁سجده": 4887,
      "▁خندا": 4888,
      "▁اوسئ": 4889,
      "▁ایستل": 4890,
      "▁پیښی": 4891,
      "ډول": 4892,
      "▁ذریعه": 4893,
      "▁اوړی": 4894,
      "▁لاسونو": 4895,
      "▁چرته": 4896,
      "▁مهر": 4897,
      "یاس": 4898,
      "▁ښودلې": 4899,
      "▁نیوکې": 4900,
      "گار": 4901,
      "ښتون": 4902,
      "▁وفا": 4903,
      "▁معمولا": 4904,
      "▁سان": 4905,
      "▁فعاله": 4906,
      "▁یوو": 4907,
      "▁صحت": 4908,
      "▁مشورې": 4909,
      "▁ونیسئ": 4910,
      "▁ومومی": 4911,
      "▁پیچ": 4912,
      "ذر": 4913,
      "▁ضعی": 4914,
      "▁ملګرتیا": 4915,
      "▁ککړ": 4916,
      "▁لاهور": 4917,
      "څی": 4918,
      "▁المل": 4919,
      "▁الز": 4920,
      "▁ناوخته": 4921,
      "▁چهارشنبې": 4922,
      "▁خواه": 4923,
      "▁سیل": 4924,
      "انګو": 4925,
      "▁قومونو": 4926,
      "▁چور": 4927,
      "▁ګرځې": 4928,
      "▁شمیره": 4929,
      "▁تضمین": 4930,
      "یمی": 4931,
      "▁خوښۍ": 4932,
      "▁لوېدی": 4933,
      "▁کاپی": 4934,
      "▁برکت": 4935,
      "▁جمعه": 4936,
      "▁غریب": 4937,
      "▁تباه": 4938,
      "▁طاقت": 4939,
      "▁فط": 4940,
      "▁پم": 4941,
      "▁ناروغانو": 4942,
      "▁تنګ": 4943,
      "▁سختې": 4944,
      "▁رهبری": 4945,
      "▁تابع": 4946,
      "▁پاچ": 4947,
      "کین": 4948,
      "▁نیکه": 4949,
      "▁ومنی": 4950,
      "▁پوښتنو": 4951,
      "▁أو": 4952,
      "▁تباد": 4953,
      "▁فاع": 4954,
      "کریم": 4955,
      "صان": 4956,
      "▁ډکه": 4957,
      "▁پخپلو": 4958,
      "▁تبص": 4959,
      "▁اپریل": 4960,
      "▁کشف": 4961,
      "▁ولسوالی": 4962,
      "▁اندازې": 4963,
      "▁وژنی": 4964,
      "▁څېړنو": 4965,
      "▁امکانات": 4966,
      "ارا": 4967,
      "▁منلې": 4968,
      "▁کمښت": 4969,
      "▁مقدار": 4970,
      "▁اړینه": 4971,
      "▁وپې": 4972,
      "▁وچې": 4973,
      "▁ووځی": 4974,
      "▁پاملرنې": 4975,
      "▁پیاوړتیا": 4976,
      "▁وؤ": 4977,
      "▁انتخابات": 4978,
      "▁کرد": 4979,
      "▁لات": 4980,
      "▁تعبیر": 4981,
      "اعیل": 4982,
      "اکی": 4983,
      "روز": 4984,
      "▁عاید": 4985,
      "▁کنه": 4986,
      "▁کلنۍ": 4987,
      "▁حرم": 4988,
      "▁وېره": 4989,
      "▁جبر": 4990,
      "▁واقعی": 4991,
      "▁احکام": 4992,
      "▁خم": 4993,
      "▁فرعون": 4994,
      "▁واضح": 4995,
      "▁وړه": 4996,
      "▁قوانین": 4997,
      "▁مخکښ": 4998,
      "جل": 4999,
      "▁بجو": 5000,
      "▁الوتکه": 5001,
      "تیکا": 5002,
      "ارډ": 5003,
      "▁وایو": 5004,
      "ماع": 5005,
      "▁دودی": 5006,
      "▁اوپ": 5007,
      "▁فدر": 5008,
      "▁کلمې": 5009,
      "▁کېدلو": 5010,
      "▁آخر": 5011,
      "▁ډار": 5012,
      "▁ناام": 5013,
      "▁بمبار": 5014,
      "▁محاک": 5015,
      "ضان": 5016,
      "ریا": 5017,
      "▁وېرې": 5018,
      "▁قائ": 5019,
      "ګرانو": 5020,
      "یاوی": 5021,
      "▁شار": 5022,
      "▁محلی": 5023,
      "▁سرطان": 5024,
      "▁زنګ": 5025,
      "غوری": 5026,
      "▁ساتونکی": 5027,
      "▁جدا": 5028,
      "▁رپ": 5029,
      "▁سپکاوی": 5030,
      "▁اجرائی": 5031,
      "▁غوښتونکو": 5032,
      "▁هنری": 5033,
      "▁سپینې": 5034,
      "▁وېب": 5035,
      "▁دګ": 5036,
      "▁عالمانو": 5037,
      "ستلی": 5038,
      "▁حن": 5039,
      "گل": 5040,
      "▁چاو": 5041,
      "▁برای": 5042,
      "▁اچوی": 5043,
      "▁اشخاص": 5044,
      "یدلو": 5045,
      "▁کمېټې": 5046,
      "▁مظاهره": 5047,
      "▁عدم": 5048,
      "▁ګوګل": 5049,
      "▁هېوادو": 5050,
      "▁اوسمهال": 5051,
      "▁وبه": 5052,
      "▁محصولاتو": 5053,
      "▁کنترول": 5054,
      "▁وسایل": 5055,
      "▁ږی": 5056,
      "▁کرښه": 5057,
      "▁ګډونو": 5058,
      "▁بیو": 5059,
      "▁اداء": 5060,
      "▁فه": 5061,
      "▁راوی": 5062,
      "▁څرنګوالی": 5063,
      "▁بعد": 5064,
      "▁پېدا": 5065,
      "عف": 5066,
      "▁لارښوونه": 5067,
      "▁نیوز": 5068,
      "▁اوسپ": 5069,
      "▁عادل": 5070,
      "ثو": 5071,
      "▁تماس": 5072,
      "ویز": 5073,
      "اټ": 5074,
      "▁آخرت": 5075,
      "▁احکامو": 5076,
      "▁بدخشان": 5077,
      "ضیح": 5078,
      "▁صوبه": 5079,
      "▁وئ": 5080,
      "▁اخیستو": 5081,
      "▁مظلوم": 5082,
      "▁نبات": 5083,
      "▁دایمی": 5084,
      "▁هډو": 5085,
      "▁وسپارل": 5086,
      "▁دهی": 5087,
      "▁میرمنې": 5088,
      "لید": 5089,
      "▁کموالی": 5090,
      "▁روسانو": 5091,
      "بین": 5092,
      "▁ویی": 5093,
      "▁معنوی": 5094,
      "▁هرصورت": 5095,
      "▁تمام": 5096,
      "▁سیالی": 5097,
      "▁کالی": 5098,
      "▁یونان": 5099,
      "▁مرحله": 5100,
      "▁جزی": 5101,
      "طا": 5102,
      "▁ښایسته": 5103,
      "▁ژمنې": 5104,
      "▁چوپ": 5105,
      "▁مجاه": 5106,
      "▁فائ": 5107,
      "▁پاسه": 5108,
      "▁بارک": 5109,
      "▁قضیه": 5110,
      "▁درملو": 5111,
      "▁څرگند": 5112,
      "الیزم": 5113,
      "▁امریکایان": 5114,
      "▁ننه": 5115,
      "▁کمولو": 5116,
      "▁سوا": 5117,
      "▁شرح": 5118,
      "▁ستونز": 5119,
      "▁درنه": 5120,
      "▁واورې": 5121,
      "▁هک": 5122,
      "▁وړې": 5123,
      "حید": 5124,
      "▁پوهان": 5125,
      "▁بندیزونو": 5126,
      "▁مکل": 5127,
      "حل": 5128,
      "▁دچ": 5129,
      "▁کاروان": 5130,
      "▁ددو": 5131,
      "▁قبول": 5132,
      "▁پته": 5133,
      "▁توبه": 5134,
      "▁اصلا": 5135,
      "▁تلویزیون": 5136,
      "▁هرو": 5137,
      "▁اکرم": 5138,
      "▁موب": 5139,
      "▁سلګونو": 5140,
      "▁ټکو": 5141,
      "▁عنا": 5142,
      "▁کندوز": 5143,
      "سټی": 5144,
      "▁خالد": 5145,
      "▁حنی": 5146,
      "▁ایز": 5147,
      "ږدئ": 5148,
      "▁جمال": 5149,
      "▁کاره": 5150,
      "▁آل": 5151,
      "▁متره": 5152,
      "▁ولید": 5153,
      "▁پکتیکا": 5154,
      "▁لارښوونې": 5155,
      "دالله": 5156,
      "▁لګولی": 5157,
      "▁بالاخره": 5158,
      "لږه": 5159,
      "عکس": 5160,
      "ژه": 5161,
      "▁نومونو": 5162,
      "▁رال": 5163,
      "زیا": 5164,
      "▁انرژۍ": 5165,
      "شریف": 5166,
      "▁فلسطین": 5167,
      "ختر": 5168,
      "▁څوکۍ": 5169,
      "▁فزیکی": 5170,
      "▁نصاب": 5171,
      "▁نشتوالی": 5172,
      "▁دهغې": 5173,
      "▁خواش": 5174,
      "▁وأ": 5175,
      "▁احادی": 5176,
      "شک": 5177,
      "▁مسافر": 5178,
      "لیه": 5179,
      "▁ولیکل": 5180,
      "▁هېڅکله": 5181,
      "▁ډاډه": 5182,
      "▁پښ": 5183,
      "▁اشت": 5184,
      "ورنډ": 5185,
      "خېل": 5186,
      "خلیک": 5187,
      "▁پان": 5188,
      "▁اټومی": 5189,
      "▁فیسبوک": 5190,
      "▁تشوی": 5191,
      "▁راسره": 5192,
      "پاڼې": 5193,
      "▁کامل": 5194,
      "▁مخدره": 5195,
      "اور": 5196,
      "▁طور": 5197,
      "▁لسیزو": 5198,
      "▁خوړل": 5199,
      "اردو": 5200,
      "▁قم": 5201,
      "ندویه": 5202,
      "▁هلاک": 5203,
      "▁بیرغ": 5204,
      "▁روښان": 5205,
      "▁زن": 5206,
      "▁ځما": 5207,
      "ویا": 5208,
      "▁درجې": 5209,
      "▁خلګ": 5210,
      "▁لپ": 5211,
      "▁علماوو": 5212,
      "▁بېلګې": 5213,
      "▁لوبډلو": 5214,
      "▁خارجه": 5215,
      "▁پسرلی": 5216,
      "▁ګمر": 5217,
      "صف": 5218,
      "▁ووینی": 5219,
      "کتاب": 5220,
      "▁رنځ": 5221,
      "▁مطبوعاتو": 5222,
      "▁وپی": 5223,
      "▁وسیلې": 5224,
      "▁مرض": 5225,
      "یمه": 5226,
      "▁ووئیل": 5227,
      "▁نسته": 5228,
      "▁حمید": 5229,
      "▁اتفاق": 5230,
      "▁هوس": 5231,
      "▁دخپلو": 5232,
      "▁تلاوت": 5233,
      "▁زاړه": 5234,
      "▁شتمن": 5235,
      "▁ترهګر": 5236,
      "▁لال": 5237,
      "▁سکتور": 5238,
      "▁وحشت": 5239,
      "▁عبدالرحمن": 5240,
      "▁رنگ": 5241,
      "▁کېدی": 5242,
      "▁صدیق": 5243,
      "▁راتلل": 5244,
      "▁څیړنې": 5245,
      "▁دریمه": 5246,
      "▁غښت": 5247,
      "▁ستاینه": 5248,
      "▁سلم": 5249,
      "ویر": 5250,
      "▁اسماعیل": 5251,
      "▁هوکړې": 5252,
      "▁وږی": 5253,
      "▁انجن": 5254,
      "▁یهود": 5255,
      "▁سامان": 5256,
      "فیه": 5257,
      "▁مجرم": 5258,
      "▁عنوان": 5259,
      "▁نود": 5260,
      "▁پوهاوی": 5261,
      "لاه": 5262,
      "▁کاندید": 5263,
      "▁یادیږی": 5264,
      "نن": 5265,
      "ومو": 5266,
      "▁الط": 5267,
      "▁مینځه": 5268,
      "▁ډیپلوم": 5269,
      "فته": 5270,
      "▁مچ": 5271,
      "▁هله": 5272,
      "▁کاغذ": 5273,
      "▁راوستل": 5274,
      "البانو": 5275,
      "▁کاناډا": 5276,
      "▁حیات": 5277,
      "▁اسرائیل": 5278,
      "▁اعلی": 5279,
      "▁راوړلو": 5280,
      "▁ډولونه": 5281,
      "▁ورسېږی": 5282,
      "▁کاروبار": 5283,
      "▁ترمخه": 5284,
      "▁سروې": 5285,
      "▁سمبال": 5286,
      "▁بیار": 5287,
      "▁سخ": 5288,
      "▁ربانی": 5289,
      "رام": 5290,
      "کارو": 5291,
      "څې": 5292,
      "▁ذبیح": 5293,
      "▁مقدس": 5294,
      "▁مراج": 5295,
      "▁سیوری": 5296,
      "▁خپرونې": 5297,
      "▁وسایلو": 5298,
      "▁صحابه": 5299,
      "▁کسی": 5300,
      "▁لسګونو": 5301,
      "▁جرمونو": 5302,
      "ریو": 5303,
      "▁واری": 5304,
      "▁ګې": 5305,
      "▁هوښیار": 5306,
      "والتیا": 5307,
      "▁انا": 5308,
      "▁ترهګری": 5309,
      "▁سرتیرو": 5310,
      "▁وتل": 5311,
      "حک": 5312,
      "▁وئیل": 5313,
      "▁دلی": 5314,
      "▁زمانې": 5315,
      "▁باطل": 5316,
      "▁وضع": 5317,
      "▁پیړۍ": 5318,
      "▁تشخی": 5319,
      "▁غلی": 5320,
      "▁نجونې": 5321,
      "▁مړو": 5322,
      "▁میډیا": 5323,
      "▁زوړ": 5324,
      "▁یعق": 5325,
      "▁لف": 5326,
      "▁اتحادیې": 5327,
      "▁ایف": 5328,
      "▁ضمیر": 5329,
      "▁لغمان": 5330,
      "▁حصه": 5331,
      "▁اوک": 5332,
      "▁حساس": 5333,
      "▁مرگ": 5334,
      "▁شاهی": 5335,
      "▁سمی": 5336,
      "▁ګړندی": 5337,
      "▁فاص": 5338,
      "▁مهربانی": 5339,
      "▁ومومئ": 5340,
      "▁وشوې": 5341,
      "▁حقوقی": 5342,
      "▁روانو": 5343,
      "▁اتباع": 5344,
      "▁ننوت": 5345,
      "▁اعم": 5346,
      "▁وغیره": 5347,
      "▁الذ": 5348,
      "▁رواج": 5349,
      "▁دلو": 5350,
      "▁وط": 5351,
      "▁خونې": 5352,
      "▁سلګونه": 5353,
      "▁فارغ": 5354,
      "▁وحشی": 5355,
      "▁مومند": 5356,
      "▁مطبوعاتی": 5357,
      "▁کړنې": 5358,
      "▁موضوعاتو": 5359,
      "▁زابل": 5360,
      "▁دون": 5361,
      "▁هویت": 5362,
      "▁جغر": 5363,
      "▁خواوو": 5364,
      "▁ارتباط": 5365,
      "▁چینایی": 5366,
      "▁شاګر": 5367,
      "▁جامو": 5368,
      "▁سپور": 5369,
      "▁ژړا": 5370,
      "▁ادامه": 5371,
      "▁عوامی": 5372,
      "مم": 5373,
      "ولوژی": 5374,
      "▁تګلاره": 5375,
      "▁دعوه": 5376,
      "▁برخلیک": 5377,
      "نډی": 5378,
      "▁تکړه": 5379,
      "▁همدی": 5380,
      "▁پړه": 5381,
      "▁بغلان": 5382,
      "ارلس": 5383,
      "▁ژره": 5384,
      "▁رسمیت": 5385,
      "▁یور": 5386,
      "▁اړخونو": 5387,
      "▁سلطنت": 5388,
      "▁کیدلو": 5389,
      "▁ارشاد": 5390,
      "▁راوب": 5391,
      "▁اړونده": 5392,
      "▁دژ": 5393,
      "▁اغوست": 5394,
      "▁دیوه": 5395,
      "وید": 5396,
      "▁لاسوه": 5397,
      "▁انتقاد": 5398,
      "▁احمدی": 5399,
      "▁شنه": 5400,
      "▁پېژندل": 5401,
      "ږلو": 5402,
      "▁تورې": 5403,
      "▁اړوندو": 5404,
      "▁خطاب": 5405,
      "▁شېر": 5406,
      "▁هیلې": 5407,
      "ېدلی": 5408,
      "▁پیرودونکی": 5409,
      "▁تمدن": 5410,
      "▁کامیاب": 5411,
      "▁توضیح": 5412,
      "▁زرغ": 5413,
      "▁اعدام": 5414,
      "▁حت": 5415,
      "▁عرض": 5416,
      "سلام": 5417,
      "▁سینه": 5418,
      "▁راوا": 5419,
      "▁موبایل": 5420,
      "▁نوا": 5421,
      "▁مرستی": 5422,
      "▁هاش": 5423,
      "څلی": 5424,
      "▁سود": 5425,
      "▁اوا": 5426,
      "▁اسټر": 5427,
      "▁بډ": 5428,
      "عنی": 5429,
      "▁مهمې": 5430,
      "▁موجودیت": 5431,
      "▁رانه": 5432,
      "▁خلیفه": 5433,
      "▁چانس": 5434,
      "▁رخ": 5435,
      "بخت": 5436,
      "ومې": 5437,
      "▁ونیو": 5438,
      "اکه": 5439,
      "▁سوچ": 5440,
      "▁مسیح": 5441,
      "▁اندیښنه": 5442,
      "▁اغیزه": 5443,
      "▁واټن": 5444,
      "اعدې": 5445,
      "▁دنا": 5446,
      "▁وروڼو": 5447,
      "▁مېرمنو": 5448,
      "▁جاسو": 5449,
      "▁بهرنۍ": 5450,
      "▁دهر": 5451,
      "▁پرده": 5452,
      "حانه": 5453,
      "▁برت": 5454,
      "▁جنج": 5455,
      "ټکی": 5456,
      "▁ځې": 5457,
      "سلم": 5458,
      "▁ټپ": 5459,
      "▁الحق": 5460,
      "▁چم": 5461,
      "▁تردې": 5462,
      "امر": 5463,
      "▁یونی": 5464,
      "▁محافظ": 5465,
      "▁ملکونو": 5466,
      "▁ایښی": 5467,
      "▁حکومتونو": 5468,
      "▁احتمالی": 5469,
      "ړنی": 5470,
      "رانو": 5471,
      "الد": 5472,
      "▁نېک": 5473,
      "▁جبه": 5474,
      "قع": 5475,
      "▁بامی": 5476,
      "▁وسلهوالو": 5477,
      "▁ضایع": 5478,
      "▁اعلامیې": 5479,
      "▁لوستلو": 5480,
      "▁پاڅون": 5481,
      "▁هلې": 5482,
      "▁خلاصون": 5483,
      "▁بپ": 5484,
      "▁ورې": 5485,
      "▁برو": 5486,
      "▁وکولای": 5487,
      "پیو": 5488,
      "▁همیشه": 5489,
      "▁ګوټ": 5490,
      "▁څلورمه": 5491,
      "▁متخص": 5492,
      "▁طل": 5493,
      "▁موندلو": 5494,
      "▁عد": 5495,
      "▁والې": 5496,
      "▁شینو": 5497,
      "▁دامریکا": 5498,
      "▁میتود": 5499,
      "▁عامل": 5500,
      "رئیس": 5501,
      "▁سوداګرو": 5502,
      "▁قهر": 5503,
      "▁ایستلو": 5504,
      "▁محکمه": 5505,
      "▁ناب": 5506,
      "ارده": 5507,
      "▁حص": 5508,
      "▁پیښ": 5509,
      "▁ژوندون": 5510,
      "▁لوړپ": 5511,
      "▁موافقې": 5512,
      "څرګ": 5513,
      "▁صندو": 5514,
      "▁ملې": 5515,
      "ضو": 5516,
      "▁تادی": 5517,
      "▁عطا": 5518,
      "▁زرګونه": 5519,
      "شئ": 5520,
      "چو": 5521,
      "▁سلسله": 5522,
      "▁ازبکستان": 5523,
      "▁خېل": 5524,
      "▁نان": 5525,
      "▁مدد": 5526,
      "▁وباله": 5527,
      "▁جد": 5528,
      "ټرز": 5529,
      "▁اسد": 5530,
      "▁پالیسۍ": 5531,
      "▁ناورین": 5532,
      "▁دښمنانو": 5533,
      "▁پرتو": 5534,
      "▁صنعتی": 5535,
      "▁ګاونډیو": 5536,
      "▁تیلو": 5537,
      "▁فقط": 5538,
      "▁امپر": 5539,
      "▁معلومیږی": 5540,
      "▁تلیفون": 5541,
      "اسان": 5542,
      "▁بندر": 5543,
      "لر": 5544,
      "▁اخې": 5545,
      "▁ویجاړ": 5546,
      "▁اګر": 5547,
      "▁یره": 5548,
      "▁اکاډ": 5549,
      "باز": 5550,
      "جود": 5551,
      "▁هېر": 5552,
      "▁مضمون": 5553,
      "▁ماتی": 5554,
      "▁ایالات": 5555,
      "▁افس": 5556,
      "▁پلازم": 5557,
      "▁لوستونکی": 5558,
      "▁یز": 5559,
      "کاره": 5560,
      "▁لله": 5561,
      "▁انبیا": 5562,
      "▁مکتب": 5563,
      "▁بص": 5564,
      "▁چاپېریال": 5565,
      "▁شهیدان": 5566,
      "▁ښکېل": 5567,
      "▁پوښ": 5568,
      "▁مالومات": 5569,
      "▁مالوم": 5570,
      "▁پیرودونکو": 5571,
      "▁شلو": 5572,
      "تمبر": 5573,
      "▁کوچنۍ": 5574,
      "▁نندارت": 5575,
      "▁یقینا": 5576,
      "غف": 5577,
      "▁لری\r\n": 5578,
      "▁ویده": 5579,
      "▁لاسی": 5580,
      "▁صو": 5581,
      "▁پوستکی": 5582,
      "سیو": 5583,
      "کنالوژی": 5584,
      "▁ملگری": 5585,
      "▁یادولو": 5586,
      "▁اوښتی": 5587,
      "▁پېښ": 5588,
      "▁قن": 5589,
      "▁اجرا": 5590,
      "▁هزاره": 5591,
      "▁محکوم": 5592,
      "▁باسی": 5593,
      "▁ګوښه": 5594,
      "▁کوډ": 5595,
      "▁اهدافو": 5596,
      "▁مجاز": 5597,
      "▁نامعلوم": 5598,
      "▁پټو": 5599,
      "▁انټرنیټ": 5600,
      "ئل": 5601,
      "بیل": 5602,
      "▁تله": 5603,
      "دادی": 5604,
      "▁ددغې": 5605,
      "▁وژنو": 5606,
      "▁اپو": 5607,
      "▁کرامو": 5608,
      "▁ناسم": 5609,
      "▁لوا": 5610,
      "▁حمد": 5611,
      "▁راضی": 5612,
      "▁موسم": 5613,
      "▁تپ": 5614,
      "▁ستونزمن": 5615,
      "▁اسنادو": 5616,
      "▁بالکل": 5617,
      "▁شاعرانو": 5618,
      "▁استوګ": 5619,
      "رمې": 5620,
      "▁ولرو": 5621,
      "▁گډون": 5622,
      "▁شپی": 5623,
      "ارانو": 5624,
      "▁زړونه": 5625,
      "▁خړ": 5626,
      "▁خامو": 5627,
      "▁چر": 5628,
      "▁سپارل": 5629,
      "▁کارک": 5630,
      "ګرس": 5631,
      "الیک": 5632,
      "▁فرهنگ": 5633,
      "▁وکړی\r\n": 5634,
      "مهاله": 5635,
      "▁اونه": 5636,
      "▁چک": 5637,
      "▁اوده": 5638,
      "▁قضیې": 5639,
      "▁سوو": 5640,
      "▁وهلی": 5641,
      "▁الافغانی": 5642,
      "پښ": 5643,
      "▁خاصه": 5644,
      "▁ووو": 5645,
      "ټمبر": 5646,
      "▁باو": 5647,
      "▁متق": 5648,
      "▁ژباړ": 5649,
      "▁ورزش": 5650,
      "▁ګوت": 5651,
      "▁وی\r\n": 5652,
      "▁اکثر": 5653,
      "▁لازمی": 5654,
      "▁کودتا": 5655,
      "▁مکې": 5656,
      "▁معین": 5657,
      "کارډ": 5658,
      "▁ملکیت": 5659,
      "▁رخصت": 5660,
      "▁ګن": 5661,
      "▁تېروت": 5662,
      "▁اطاعت": 5663,
      "▁صندوق": 5664,
      "▁تاجکستان": 5665,
      "▁اخستل": 5666,
      "▁آسمان": 5667,
      "▁دوزخ": 5668,
      "▁منسوب": 5669,
      "رد": 5670,
      "▁سوځ": 5671,
      "▁تشخیص": 5672,
      "▁وځی": 5673,
      "▁سلیمان": 5674,
      "ارول": 5675,
      "▁تیرې": 5676,
      "▁ناروا": 5677,
      "ژن": 5678,
      "شمېر": 5679,
      "▁معاص": 5680,
      "▁ارب": 5681,
      "▁کلنه": 5682,
      "▁اوښتې": 5683,
      "▁ګډې": 5684,
      "▁تروریزم": 5685,
      "▁یاغیانو": 5686,
      "دیر": 5687,
      "▁چوک": 5688,
      "▁سنا": 5689,
      "▁گټه": 5690,
      "▁تخلی": 5691,
      "▁نری": 5692,
      "▁ځمک": 5693,
      "▁سمندری": 5694,
      "▁بسم": 5695,
      "▁ووایو": 5696,
      "▁بایډن": 5697,
      "▁خواجه": 5698,
      "▁استعداد": 5699,
      "▁مقت": 5700,
      "▁جمهوررئیس": 5701,
      "رائ": 5702,
      "▁کتنې": 5703,
      "▁ټاکلو": 5704,
      "▁جاه": 5705,
      "▁شواه": 5706,
      "▁فون": 5707,
      "▁ئے": 5708,
      "▁لګوی": 5709,
      "▁ښکلې": 5710,
      "▁جوړېږی": 5711,
      "▁یول": 5712,
      "▁عموما": 5713,
      "▁اجرائیه": 5714,
      "▁اعتر": 5715,
      "▁غې": 5716,
      "▁کومی": 5717,
      "▁پلویانو": 5718,
      "▁مساوی": 5719,
      "▁پرانیستل": 5720,
      "▁مطالب": 5721,
      "▁نهدی": 5722,
      "خیره": 5723,
      "▁وخو": 5724,
      "سور": 5725,
      "رید": 5726,
      "▁واه": 5727,
      "▁جنرل": 5728,
      "▁ویلې": 5729,
      "▁ځمکو": 5730,
      "▁وړاند": 5731,
      "▁پروا": 5732,
      "▁غړیو": 5733,
      "طف": 5734,
      "افیت": 5735,
      "▁تصویر": 5736,
      "ریان": 5737,
      "دیل": 5738,
      "گرو": 5739,
      "▁تلفاتو": 5740,
      "▁متحدو": 5741,
      "▁دوشنبه": 5742,
      "▁غزل": 5743,
      "▁اوسنۍ": 5744,
      "▁قید": 5745,
      "اړ": 5746,
      "▁بج": 5747,
      "▁پژ": 5748,
      "▁طی": 5749,
      "اسب": 5750,
      "▁واچوی": 5751,
      "▁ووایم": 5752,
      "▁انسانیت": 5753,
      "▁دموکر": 5754,
      "▁القر": 5755,
      "▁سنی": 5756,
      "▁تروریستی": 5757,
      "طې": 5758,
      "▁اړخیزه": 5759,
      "▁مشرف": 5760,
      "تانوی": 5761,
      "▁ظاهری": 5762,
      "▁وهڅ": 5763,
      "گان": 5764,
      "▁کابو": 5765,
      "▁آواز": 5766,
      "▁اورپ": 5767,
      "ېې": 5768,
      "عن": 5769,
      "علم": 5770,
      "▁شبکه": 5771,
      "▁مصل": 5772,
      "ایر": 5773,
      "▁ېو": 5774,
      "▁پخلی": 5775,
      "▁مشهوره": 5776,
      "▁وکارو": 5777,
      "وړل": 5778,
      "▁مصی": 5779,
      "کټر": 5780,
      "▁باک": 5781,
      "طفی": 5782,
      "▁بنګله": 5783,
      "▁کړکې": 5784,
      "▁ږغ": 5785,
      "▁جامع": 5786,
      "▁زین": 5787,
      "▁مذاکرات": 5788,
      "ایۍ": 5789,
      "▁وما": 5790,
      "▁مفک": 5791,
      "لینډ": 5792,
      "▁واج": 5793,
      "▁همغږی": 5794,
      "گرام": 5795,
      "▁پریکړې": 5796,
      "▁کانګرس": 5797,
      "اسیون": 5798,
      "▁هومره": 5799,
      "▁څلوی": 5800,
      "▁سحر": 5801,
      "▁سازمانونو": 5802,
      "▁لازمه": 5803,
      "عالی": 5804,
      "▁ناش": 5805,
      "▁موز": 5806,
      "▁بخاری": 5807,
      "▁اخلاقو": 5808,
      "▁سپتمبر": 5809,
      "ریانو": 5810,
      "▁راغونډ": 5811,
      "▁سپارښتنه": 5812,
      "▁وصل": 5813,
      "▁سویلی": 5814,
      "▁نمبر": 5815,
      "▁بور": 5816,
      "▁سړے": 5817,
      "▁سپینه": 5818,
      "▁څلوې": 5819,
      "منستان": 5820,
      "▁ساخت": 5821,
      "▁مېشت": 5822,
      "▁انعام": 5823,
      "▁داستان": 5824,
      "▁ضعیف": 5825,
      "▁نیوکه": 5826,
      "انیان": 5827,
      "افټ": 5828,
      "▁تودوخې": 5829,
      "▁تیاری": 5830,
      "ټیک": 5831,
      "▁آسان": 5832,
      "▁خوځښت": 5833,
      "▁لږتر": 5834,
      "▁ټوټه": 5835,
      "▁باقی": 5836,
      "▁دیپلوم": 5837,
      "▁هوډ": 5838,
      "▁خپرونه": 5839,
      "زان": 5840,
      "▁راهیسی": 5841,
      "کرې": 5842,
      "▁بنیا": 5843,
      "▁دولس": 5844,
      "ږدو": 5845,
      "▁نفوس": 5846,
      "▁خادم": 5847,
      "▁پیم": 5848,
      "تیک": 5849,
      "▁معج": 5850,
      "▁احتیاط": 5851,
      "▁خوشاله": 5852,
      "غالی": 5853,
      "▁یهودی": 5854,
      "ارونو": 5855,
      "▁انتخاباتی": 5856,
      "▁سوک": 5857,
      "▁نجات": 5858,
      "طع": 5859,
      "▁پوتین": 5860,
      "▁بب": 5861,
      "▁راځئ": 5862,
      "لے": 5863,
      "▁منشی": 5864,
      "▁واور": 5865,
      "بوی": 5866,
      "▁برعکس": 5867,
      "▁خدایه": 5868,
      "▁ناپوه": 5869,
      "▁کے": 5870,
      "▁ټوټې": 5871,
      "▁ځد": 5872,
      "▁صی": 5873,
      "▁جنگی": 5874,
      "▁سپوږمۍ": 5875,
      "دلال": 5876,
      "قره": 5877,
      "▁وګټ": 5878,
      "▁جغرافی": 5879,
      "▁ناپ": 5880,
      "▁شپږم": 5881,
      "▁فات": 5882,
      "▁احمدزی": 5883,
      "دیه": 5884,
      "▁څارنې": 5885,
      "▁اعتراف": 5886,
      "▁رقم": 5887,
      "▁شونډ": 5888,
      "▁متخصص": 5889,
      "▁پنځم": 5890,
      "رض": 5891,
      "▁تاس": 5892,
      "فل": 5893,
      "لاو": 5894,
      "▁مرکې": 5895,
      "▁متر": 5896,
      "▁دارال": 5897,
      "ږده": 5898,
      "▁مسلې": 5899,
      "▁برخی": 5900,
      "▁صا": 5901,
      "▁ورسېد": 5902,
      "▁برابروی": 5903,
      "سک": 5904,
      "پیک": 5905,
      "▁خوړلو": 5906,
      "الډ": 5907,
      "▁کیمیاوی": 5908,
      "افع": 5909,
      "▁راګر": 5910,
      "▁واړو": 5911,
      "▁جوز": 5912,
      "▁شعرونه": 5913,
      "▁انګلیسی": 5914,
      "▁کانونو": 5915,
      "▁پرېښود": 5916,
      "▁عربو": 5917,
      "نیا": 5918,
      "▁نقصان": 5919,
      "▁خدمات": 5920,
      "▁ورځنۍ": 5921,
      "▁الفت": 5922,
      "▁اسامه": 5923,
      "کیټ": 5924,
      "▁کړکېچ": 5925,
      "▁المان": 5926,
      "▁خدمتونه": 5927,
      "▁پیاوړې": 5928,
      "▁مطالعې": 5929,
      "▁کافران": 5930,
      "▁آزادۍ": 5931,
      "▁بیم": 5932,
      "▁خپلوانو": 5933,
      "▁کلو": 5934,
      "▁راکړی": 5935,
      "▁مجاهدین": 5936,
      "▁نښته": 5937,
      "▁حفاظ": 5938,
      "▁وګرځی": 5939,
      "ګران": 5940,
      "▁حکیم": 5941,
      "▁دنی": 5942,
      "▁خیل": 5943,
      "ټان": 5944,
      "▁علاج": 5945,
      "▁معیاری": 5946,
      "▁ریکارډ": 5947,
      "▁وچه": 5948,
      "رېکا": 5949,
      "▁بحثونه": 5950,
      "ستۍ": 5951,
      "▁اغیزمن": 5952,
      "شیر": 5953,
      "▁لاین": 5954,
      "▁زمکه": 5955,
      "▁سندرې": 5956,
      "▁اظه": 5957,
      "▁حید": 5958,
      "▁چای": 5959,
      "▁خواخو": 5960,
      "▁مناب": 5961,
      "▁فول": 5962,
      "▁سیلاب": 5963,
      "▁وپوه": 5964,
      "▁اسو": 5965,
      "▁ګری": 5966,
      "▁عض": 5967,
      "▁ډان": 5968,
      "▁وقت": 5969,
      "▁لږترلږه": 5970,
      "▁افغانیو": 5971,
      "▁شرک": 5972,
      "▁نقش": 5973,
      "▁همې": 5974,
      "▁ټاپو": 5975,
      "▁بدر": 5976,
      "▁میرویس": 5977,
      "▁ووت": 5978,
      "▁فرانسوی": 5979,
      "▁چنګ": 5980,
      "بۍ": 5981,
      "▁نړې": 5982,
      "▁تخار": 5983,
      "▁زیانمن": 5984,
      "▁قرض": 5985,
      "▁پرل": 5986,
      "▁محصلینو": 5987,
      "ېز": 5988,
      "▁انکش": 5989,
      "ومن": 5990,
      "▁مادې": 5991,
      "اوس": 5992,
      "▁وکیلانو": 5993,
      "▁دیر": 5994,
      "▁لغوه": 5995,
      "▁ثم": 5996,
      "▁قبیلې": 5997,
      "▁پروګرامونه": 5998,
      "لیس": 5999,
      "ګیو": 6000,
      "▁تکیه": 6001,
      "▁ازموینې": 6002,
      "▁اڅ": 6003,
      "▁کیلومت": 6004,
      "▁مرحوم": 6005,
      "▁دنه": 6006,
      "▁هوت": 6007,
      "▁حقونه": 6008,
      "▁ستنې": 6009,
      "▁محروم": 6010,
      "▁زون": 6011,
      "▁مهاجرت": 6012,
      "▁کمیټې": 6013,
      "▁صدی": 6014,
      "▁ډیوه": 6015,
      "▁اشارې": 6016,
      "▁آدم": 6017,
      "▁هجرت": 6018,
      "▁اجماع": 6019,
      "▁ساد": 6020,
      "▁ولسمشری": 6021,
      "▁ښکیل": 6022,
      "▁محصولات": 6023,
      "▁تامین": 6024,
      "▁قضایی": 6025,
      "▁بلوڅ": 6026,
      "غیر": 6027,
      "خا": 6028,
      "▁ګڼه": 6029,
      "عار": 6030,
      "محمد": 6031,
      "▁ایی": 6032,
      "▁پانګه": 6033,
      "▁ورکوو": 6034,
      "▁فیض": 6035,
      "عفر": 6036,
      "▁بشپړې": 6037,
      "▁ایجاد": 6038,
      "▁قیام": 6039,
      "نر": 6040,
      "یاو": 6041,
      "ذیب": 6042,
      "▁ارم": 6043,
      "▁ډیورنډ": 6044,
      "▁غړیتوب": 6045,
      "▁وفاد": 6046,
      "▁بیلو": 6047,
      "▁فبرورۍ": 6048,
      "▁توحید": 6049,
      "▁اخیستنې": 6050,
      "▁فلسطینی": 6051,
      "▁وئیلی": 6052,
      "▁متعلق": 6053,
      "▁محاص": 6054,
      "▁سلمان": 6055,
      "▁مېلم": 6056,
      "شاء": 6057,
      "▁درکوی": 6058,
      "▁کمېشن": 6059,
      "▁استادانو": 6060,
      "▁لوږ": 6061,
      "▁فرد": 6062,
      "هغه": 6063,
      "▁ایجن": 6064,
      "▁بیارغ": 6065,
      "ثه": 6066,
      "▁ېر": 6067,
      "▁پکی": 6068,
      "▁غېر": 6069,
      "▁قاری": 6070,
      "▁سرور": 6071,
      "▁زید": 6072,
      "▁ضمان": 6073,
      "▁عثمان": 6074,
      "▁مقابلې": 6075,
      "▁زامن": 6076,
      "▁رګ": 6077,
      "▁ګمان": 6078,
      "▁کارمند": 6079,
      "▁کامیا": 6080,
      "▁استول": 6081,
      "▁راکړه": 6082,
      "▁خبریالان": 6083,
      "▁اخلاق": 6084,
      "▁ضرر": 6085,
      "▁مسا": 6086,
      "▁واله": 6087,
      "▁مسولیت": 6088,
      "▁قبا": 6089,
      "▁ستانک": 6090,
      "▁سوداګر": 6091,
      "▁موقف": 6092,
      "▁راټ": 6093,
      "▁محمدی": 6094,
      "▁نومې": 6095,
      "▁میرمنو": 6096,
      "▁سپک": 6097,
      "▁وحی": 6098,
      "▁زوره": 6099,
      "▁بوټی": 6100,
      "▁ولسونو": 6101,
      "▁لګولو": 6102,
      "▁اپرې": 6103,
      "▁لرغونی": 6104,
      "▁خونه": 6105,
      "▁پژواک": 6106,
      "▁کابینې": 6107,
      "▁ازموینه": 6108,
      "لافی": 6109,
      "▁جنګیالی": 6110,
      "▁دانش": 6111,
      "▁ګول": 6112,
      "▁ګرځنده": 6113,
      "▁دوستانو": 6114,
      "سټر": 6115,
      "ځان": 6116,
      "▁لومړنیو": 6117,
      "▁دښمنان": 6118,
      "ایدو": 6119,
      "▁تیریږی": 6120,
      "▁چلو": 6121,
      "▁لاملونه": 6122,
      "▁پوهنتونونو": 6123,
      "پښتون": 6124,
      "▁وپل": 6125,
      "▁سلیم": 6126,
      "خب": 6127,
      "▁دآ": 6128,
      "▁مقدمه": 6129,
      "▁جور": 6130,
      "▁انداز": 6131,
      "▁درب": 6132,
      "▁یعقوب": 6133,
      "▁ځنا": 6134,
      "▁شهزاده": 6135,
      "▁همغږۍ": 6136,
      "▁ورپ": 6137,
      "▁فورم": 6138,
      "▁سرلیک": 6139,
      "▁راوړنې": 6140,
      "▁پینځه": 6141,
      "▁عینی": 6142,
      "اعد": 6143,
      "▁اے": 6144,
      "▁کارت": 6145,
      "▁موافق": 6146,
      "▁وښیی": 6147,
      "رالیا": 6148,
      "▁سرکاری": 6149,
      "جیبه": 6150,
      "▁ځانگړی": 6151,
      "▁رارو": 6152,
      "▁قواوو": 6153,
      "▁غوسه": 6154,
      "▁فور": 6155,
      "▁جوړونې": 6156,
      "▁حمل": 6157,
      "▁درنو": 6158,
      "▁تدری": 6159,
      "▁کث": 6160,
      "▁مند": 6161,
      "▁هلو": 6162,
      "▁جار": 6163,
      "▁پانګونې": 6164,
      "بح": 6165,
      "▁انګرې": 6166,
      "▁پارک": 6167,
      "▁کورس": 6168,
      "▁زېر": 6169,
      "▁اعمالو": 6170,
      "▁آب": 6171,
      "▁تداب": 6172,
      "▁حب": 6173,
      "▁لاک": 6174,
      "▁یانې": 6175,
      "▁جنس": 6176,
      "▁سبحانه": 6177,
      "▁خانه": 6178,
      "▁زغ": 6179,
      "▁بوټو": 6180,
      "▁شخړې": 6181,
      "▁مشکو": 6182,
      "▁ویلای": 6183,
      "▁لوټ": 6184,
      "▁هواره": 6185,
      "ورتی": 6186,
      "▁تجربو": 6187,
      "▁وښود": 6188,
      "▁سړې": 6189,
      "▁نثر": 6190,
      "▁ستانکزی": 6191,
      "▁قربانۍ": 6192,
      "▁روڼ": 6193,
      "▁ګڼې": 6194,
      "▁مستقل": 6195,
      "▁امکاناتو": 6196,
      "▁ټلوی": 6197,
      "ولت": 6198,
      "▁اسټرالیا": 6199,
      "▁محمده": 6200,
      "▁مسئلې": 6201,
      "▁ناتو": 6202,
      "▁استعفا": 6203,
      "▁بیانوی": 6204,
      "▁محدودی": 6205,
      "▁کړنل": 6206,
      "▁بللې": 6207,
      "▁نندارې": 6208,
      "▁خپلواکی": 6209,
      "▁تحصیل": 6210,
      "▁استدلال": 6211,
      "▁سرک": 6212,
      "▁وقف": 6213,
      "▁اېف": 6214,
      "▁صفا": 6215,
      "ګړی": 6216,
      "▁ویښت": 6217,
      "▁واخیسته": 6218,
      "▁صوبایی": 6219,
      "انډ": 6220,
      "▁ژوندانه": 6221,
      "▁سرعت": 6222,
      "ناء": 6223,
      "▁الفاظو": 6224,
      "▁راکوی": 6225,
      "▁خوښوی": 6226,
      "▁پرمختیایی": 6227,
      "سپ": 6228,
      "▁وضاحت": 6229,
      "ویشت": 6230,
      "▁وګرځ": 6231,
      "▁ورسته": 6232,
      "▁پراخې": 6233,
      "راب": 6234,
      "لېدو": 6235,
      "▁مصیبت": 6236,
      "▁ترور": 6237,
      "▁غن": 6238,
      "▁پروګرامونو": 6239,
      "▁فقیر": 6240,
      "▁کاکړ": 6241,
      "▁ذخیره": 6242,
      "▁رمضان": 6243,
      "▁تدبیر": 6244,
      "▁پاکه": 6245,
      "▁مېړه": 6246,
      "▁بید": 6247,
      "▁ګورو": 6248,
      "▁ورباندی": 6249,
      "▁جایزه": 6250,
      "خار": 6251,
      "▁برم": 6252,
      "▁نندارتون": 6253,
      "ئے": 6254,
      "▁نه‌": 6255,
      "▁مسلک": 6256,
      "▁ناول": 6257,
      "▁لیکلې": 6258,
      "ریدو": 6259,
      "▁وګورو": 6260,
      "▁درسره": 6261,
      "▁اثار": 6262,
      "▁تعامل": 6263,
      "▁اخلاص": 6264,
      "▁وظیفه": 6265,
      "▁وشول": 6266,
      "▁دهیواد": 6267,
      "▁اقبال": 6268,
      "▁سرغړونه": 6269,
      "پښین": 6270,
      "▁مؤمنانو": 6271,
      "▁ډالۍ": 6272,
      "▁تخم": 6273,
      "▁مبت": 6274,
      "▁انجین": 6275,
      "▁پلازمېنه": 6276,
      "▁دسمبر": 6277,
      "شین": 6278,
      "ولم": 6279,
      "▁بهرنیانو": 6280,
      "رات": 6281,
      "▁نمان": 6282,
      "▁منګ": 6283,
      "▁څېړونکی": 6284,
      "▁نورستان": 6285,
      "▁شراب": 6286,
      "رګو": 6287,
      "▁اظهار": 6288,
      "▁اړخونه": 6289,
      "▁کات": 6290,
      "▁ګوتو": 6291,
      "▁فاریاب": 6292,
      "▁ووای": 6293,
      "▁ټینګښت": 6294,
      "▁وساتل": 6295,
      "▁دمس": 6296,
      "ښاد": 6297,
      "▁اچولی": 6298,
      "▁اقداماتو": 6299,
      "▁چن": 6300,
      "▁سلوک": 6301,
      "▁داغ": 6302,
      "▁عکسونه": 6303,
      "▁په‌": 6304,
      "▁همت": 6305,
      "▁وړوم": 6306,
      "▁مسؤل": 6307,
      "وهم": 6308,
      "▁اصح": 6309,
      "▁ځه": 6310,
      "▁لمړی": 6311,
      "▁مقص": 6312,
      "▁درسی": 6313,
      "▁یکشنبه": 6314,
      "▁عف": 6315,
      "▁وبلل": 6316,
      "▁اوسنیو": 6317,
      "▁ترمیم": 6318,
      "اران": 6319,
      "▁کورټ": 6320,
      "▁څارنه": 6321,
      "بله": 6322,
      "▁لیدنې": 6323,
      "لوډ": 6324,
      "▁پاری": 6325,
      "▁ستانه": 6326,
      "▁سپټمبر": 6327,
      "▁شاهین": 6328,
      "▁تقسیم": 6329,
      "▁مسئول": 6330,
      "▁پښه": 6331,
      "▁اوف": 6332,
      "▁دېوال": 6333,
      "▁پین": 6334,
      "▁طرز": 6335,
      "▁انګریزی": 6336,
      "▁مخته": 6337,
      "▁ادع": 6338,
      "▁یادوی": 6339,
      "▁اړخیز": 6340,
      "▁خراسان": 6341,
      "▁وهو": 6342,
      "▁نامتو": 6343,
      "▁ډاکټرانو": 6344,
      "▁شبکو": 6345,
      "▁وځنډ": 6346,
      "▁جسد": 6347,
      "▁کاروونکو": 6348,
      "▁همداشان": 6349,
      "▁دقیقو": 6350,
      "عول": 6351,
      "▁سترگو": 6352,
      "▁ردوی": 6353,
      "نز": 6354,
      "▁طلب": 6355,
      "▁راغلو": 6356,
      "▁کارپوهان": 6357,
      "ذف": 6358,
      "ومرو": 6359,
      "الدین": 6360,
      "▁کمونی": 6361,
      "پورت": 6362,
      "▁ماد": 6363,
      "▁وهلې": 6364,
      "▁خفه": 6365,
      "▁درکړی": 6366,
      "▁محفو": 6367,
      "▁خطا": 6368,
      "▁ټاکنیزو": 6369,
      "▁ویری": 6370,
      "▁هنرم": 6371,
      "▁اونیو": 6372,
      "▁پخل": 6373,
      "▁احمدشاه": 6374,
      "▁مظاهرې": 6375,
      "▁انع": 6376,
      "▁میلم": 6377,
      "▁تدریس": 6378,
      "▁نیټې": 6379,
      "▁سږکال": 6380,
      "▁سطحه": 6381,
      "▁جنوری": 6382,
      "برت": 6383,
      "▁چاری": 6384,
      "▁وایه": 6385,
      "▁بدلونونه": 6386,
      "امنو": 6387,
      "▁کړکی": 6388,
      "▁ګور": 6389,
      "اښ": 6390,
      "▁سترګی": 6391,
      "▁جعلی": 6392,
      "▁مقالې": 6393,
      "▁زکات": 6394,
      "▁پریښود": 6395,
      "خانه": 6396,
      "▁کتابتون": 6397,
      "▁کرېکټ": 6398,
      "ضا": 6399,
      "▁پردیو": 6400,
      "▁مساف": 6401,
      "▁برب": 6402,
      "غۍ": 6403,
      "▁کتونکی": 6404,
      "▁ژمنو": 6405,
      "▁میلیونو": 6406,
      "▁افراطی": 6407,
      "▁رود": 6408,
      "▁واوری": 6409,
      "▁پارلمانی": 6410,
      "▁دلالت": 6411,
      "▁نسی": 6412,
      "▁ېی": 6413,
      "▁سندر": 6414,
      "▁روزی": 6415,
      "تال": 6416,
      "▁آف": 6417,
      "▁ګډونوالو": 6418,
      "▁یونس": 6419,
      "▁ژوندۍ": 6420,
      "▁ګټی": 6421,
      "ایډ": 6422,
      "▁محی": 6423,
      "▁جوړونکی": 6424,
      "▁ائت": 6425,
      "▁خیانت": 6426,
      "دون": 6427,
      "▁پرمختگ": 6428,
      "▁امه": 6429,
      "▁ډاون": 6430,
      "▁زېږې": 6431,
      "صص": 6432,
      "▁محبوب": 6433,
      "ثره": 6434,
      "▁درج": 6435,
      "وسته": 6436,
      "طین": 6437,
      "▁لش": 6438,
      "▁ریاض": 6439,
      "▁درست": 6440,
      "سب": 6441,
      "▁غږی": 6442,
      "▁زړو": 6443,
      "▁میشت": 6444,
      "▁اعمال": 6445,
      "▁موندنې": 6446,
      "▁باع": 6447,
      "▁پوستې": 6448,
      "▁ونیوله": 6449,
      "▁څښاک": 6450,
      "▁بنا": 6451,
      "▁مرستندویه": 6452,
      "▁مکروه": 6453,
      "▁غری": 6454,
      "▁ولولئ": 6455,
      "▁ارس": 6456,
      "▁علیهم": 6457,
      "▁لادن": 6458,
      "ؤد": 6459,
      "▁خاوندان": 6460,
      "نډو": 6461,
      "▁ویرې": 6462,
      "پښتونخوا": 6463,
      "دایی": 6464,
      "▁ټوپک": 6465,
      "▁تللو": 6466,
      "قام": 6467,
      "▁راد": 6468,
      "الع": 6469,
      "▁احساساتو": 6470,
      "▁داسۍ": 6471,
      "▁شکه": 6472,
      "▁موسیقی": 6473,
      "▁لته": 6474,
      "▁غړ": 6475,
      "▁ترافی": 6476,
      "▁زیږی": 6477,
      "▁عظ": 6478,
      "▁فضی": 6479,
      "▁تولی": 6480,
      "اریو": 6481,
      "▁کلب": 6482,
      "اریه": 6483,
      "شۍ": 6484,
      "▁لاند": 6485,
      "▁مجلې": 6486,
      "▁تړلو": 6487,
      "▁خام": 6488,
      "▁خپرېدو": 6489,
      "قین": 6490,
      "▁جوړیدو": 6491,
      "▁وروڼه": 6492,
      "▁اغېزمن": 6493,
      "▁غله": 6494,
      "راط": 6495,
      "▁ورسید": 6496,
      "▁غاښونو": 6497,
      "▁تفاهم": 6498,
      "▁درن": 6499,
      "▁دښمنی": 6500,
      "▁خبرتیا": 6501,
      "▁خزانې": 6502,
      "▁اړولی": 6503,
      "▁سیاستوال": 6504,
      "ایاتو": 6505,
      "بیان": 6506,
      "▁والله": 6507,
      "▁یوناما": 6508,
      "▁کع": 6509,
      "▁مشورتی": 6510,
      "▁لیا": 6511,
      "▁سمې": 6512,
      "▁قربانیانو": 6513,
      "▁محقق": 6514,
      "▁ړنګ": 6515,
      "▁شۍ": 6516,
      "▁کېښود": 6517,
      "ژندل": 6518,
      "▁تلې": 6519,
      "▁عصر": 6520,
      "صیلی": 6521,
      "▁ورځنیو": 6522,
      "▁دخلکو": 6523,
      "▁ګواښونو": 6524,
      "▁حفاظت": 6525,
      "▁ویشل": 6526,
      "▁جسم": 6527,
      "▁کسه": 6528,
      "▁واره": 6529,
      "یدونکی": 6530,
      "▁واپس": 6531,
      "▁چاودنو": 6532,
      "قانونه": 6533,
      "غول": 6534,
      "▁تګلارې": 6535,
      "▁پولو": 6536,
      "▁ریښتینی": 6537,
      "▁استاذ": 6538,
      "اسین": 6539,
      "▁مسایل": 6540,
      "▁ګواکې": 6541,
      "▁میان": 6542,
      "▁ختمولو": 6543,
      "وهر": 6544,
      "▁مخاط": 6545,
      "▁واکمنی": 6546,
      "▁ژورنال": 6547,
      "▁سینګ": 6548,
      "▁کړیو": 6549,
      "▁کښتۍ": 6550,
      "هو": 6551,
      "▁روزل": 6552,
      "▁دروند": 6553,
      "▁انی": 6554,
      "▁وست": 6555,
      "▁دوحه": 6556,
      "▁تخریب": 6557,
      "▁مخکښې": 6558,
      "ځلو": 6559,
      "▁کوکن": 6560,
      "▁اثارو": 6561,
      "▁برخمن": 6562,
      "▁پاد": 6563,
      "غنی": 6564,
      "▁استعمار": 6565,
      "لاص": 6566,
      "وران": 6567,
      "▁شرکتونه": 6568,
      "باح": 6569,
      "▁موه": 6570,
      "ځایه": 6571,
      "وړاندې": 6572,
      "▁شپا": 6573,
      "▁عه": 6574,
      "▁اړتیاوې": 6575,
      "کسی": 6576,
      "زاق": 6577,
      "▁ژوبلې": 6578,
      "▁مینځپ": 6579,
      "▁جنګیالیو": 6580,
      "▁غاړو": 6581,
      "▁اوق": 6582,
      "▁مصنو": 6583,
      "▁اوسېدونکو": 6584,
      "▁مخالفین": 6585,
      "ومل": 6586,
      "▁دقت": 6587,
      "صال": 6588,
      "▁سس": 6589,
      "▁یقینی": 6590,
      "▁ناڅاپه": 6591,
      "▁بمی": 6592,
      "▁دقیقې": 6593,
      "▁مبارکی": 6594,
      "▁المن": 6595,
      "▁رأ": 6596,
      "▁خرو": 6597,
      "کزی": 6598,
      "▁دوم": 6599,
      "▁فلسفه": 6600,
      "▁کافرانو": 6601,
      "▁کمیس": 6602,
      "▁اوع": 6603,
      "▁ښوونکو": 6604,
      "▁دکر": 6605,
      "▁گوا": 6606,
      "▁مدرسې": 6607,
      "▁استفا": 6608,
      "▁لیدونکی": 6609,
      "▁مواردو": 6610,
      "▁ملتونه": 6611,
      "▁داست": 6612,
      "▁اوج": 6613,
      "▁قسمه": 6614,
      "▁زیږ": 6615,
      "▁جزا": 6616,
      "▁عیسوی": 6617,
      "▁لوبغالی": 6618,
      "▁کمون": 6619,
      "▁رښتینی": 6620,
      "▁استق": 6621,
      "▁پروفی": 6622,
      "▁ایټالیا": 6623,
      "▁پلیټ": 6624,
      "▁احوال": 6625,
      "▁باختر": 6626,
      "▁ځانګړ": 6627,
      "▁مومن": 6628,
      "▁فاعل": 6629,
      "دک": 6630,
      "انیزم": 6631,
      "▁معص": 6632,
      "گری": 6633,
      "▁برابرې": 6634,
      "▁موسسې": 6635,
      "▁وساتئ": 6636,
      "▁بیلا": 6637,
      "مانه": 6638,
      "▁فېسبوک": 6639,
      "▁کرام": 6640,
      "▁کریک": 6641,
      "▁انځورونه": 6642,
      "▁مراسم": 6643,
      "▁ګوندونه": 6644,
      "▁بېوز": 6645,
      "▁پلانونه": 6646,
      "▁نژدی": 6647,
      "▁درېیمه": 6648,
      "▁قائم": 6649,
      "▁بابر": 6650,
      "ونس": 6651,
      "الیږی": 6652,
      "▁تورخم": 6653,
      "▁محصل": 6654,
      "▁معبود": 6655,
      "▁شهیدانو": 6656,
      "څر": 6657,
      "صوص": 6658,
      "▁غوڅ": 6659,
      "▁دطالبانو": 6660,
      "▁دغسی": 6661,
      "▁ړوم": 6662,
      "▁دوستی": 6663,
      "▁نیمګړتیا": 6664,
      "حضرت": 6665,
      "▁پرمختللی": 6666,
      "▁شده": 6667,
      "▁نظرونه": 6668,
      "▁شهزاد": 6669,
      "▁شخړو": 6670,
      "▁پوهاند": 6671,
      "▁قاب": 6672,
      "▁پلې": 6673,
      "▁قبضه": 6674,
      "▁کړکیچ": 6675,
      "▁کنده": 6676,
      "▁پلمه": 6677,
      "▁بڼ": 6678,
      "▁عارف": 6679,
      "▁دیوې": 6680,
      "▁وکولی": 6681,
      "▁منکر": 6682,
      "▁مریم": 6683,
      "▁زیا": 6684,
      "وق": 6685,
      "▁هرڅوک": 6686,
      "لن": 6687,
      "▁برک": 6688,
      "▁عهد": 6689,
      "▁احساسات": 6690,
      "خانې": 6691,
      "▁خاط": 6692,
      "ووالی": 6693,
      "▁سړکونو": 6694,
      "▁ودانیو": 6695,
      "▁ګټلو": 6696,
      "▁غوښه": 6697,
      "▁یورو": 6698,
      "▁ویټ": 6699,
      "▁صدا": 6700,
      "▁وکاروئ": 6701,
      "▁سپینو": 6702,
      "▁شجاع": 6703,
      "▁اډې": 6704,
      "▁میله": 6705,
      "▁استرالیا": 6706,
      "▁قاتل": 6707,
      "▁غوندی": 6708,
      "▁نیز": 6709,
      "▁امی": 6710,
      "▁رسېدلې": 6711,
      "▁نصیحت": 6712,
      "▁ږدی": 6713,
      "▁موسیقۍ": 6714,
      "▁ویزې": 6715,
      "▁اقرار": 6716,
      "▁قندهار": 6717,
      "▁ضرب": 6718,
      "▁خواو": 6719,
      "▁تلپ": 6720,
      "▁څان": 6721,
      "▁ناکامه": 6722,
      "▁عیب": 6723,
      "▁تلفات": 6724,
      "▁دېرش": 6725,
      "ذب": 6726,
      "▁اتمر": 6727,
      "لبدین": 6728,
      "▁ښوونی": 6729,
      "اپ": 6730,
      "زونه": 6731,
      "دری": 6732,
      "▁څځه": 6733,
      "▁کوونکې": 6734,
      "▁پوړی": 6735,
      "ګیر": 6736,
      "▁ښودلو": 6737,
      "▁اندیښنې": 6738,
      "▁کاندیدانو": 6739,
      "▁تای": 6740,
      "▁دوسی": 6741,
      "▁اوش": 6742,
      "▁ولسوال": 6743,
      "▁معمول": 6744,
      "▁افضل": 6745,
      "▁حقای": 6746,
      "▁کاش": 6747,
      "▁ترکمنستان": 6748,
      "کشن": 6749,
      "چیانو": 6750,
      "▁مهاجرینو": 6751,
      "طانی": 6752,
      "▁چون": 6753,
      "دیم": 6754,
      "ټرۍ": 6755,
      "▁اجرایی": 6756,
      "▁شریکه": 6757,
      "▁لړم": 6758,
      "زمنه": 6759,
      "▁قصه": 6760,
      "▁رکع": 6761,
      "▁ختمې": 6762,
      "▁شدت": 6763,
      "▁زیانونه": 6764,
      "▁پنجشنبه": 6765,
      "رما": 6766,
      "▁درغلی": 6767,
      "▁بمباری": 6768,
      "▁کلنې": 6769,
      "حمت": 6770,
      "خذ": 6771,
      "ندیږی": 6772,
      "▁شکایتونو": 6773,
      "▁چمن": 6774,
      "▁القاعدې": 6775,
      "الونه": 6776,
      "▁ډونالډ": 6777,
      "▁ترا": 6778,
      "▁تېلو": 6779,
      "▁تمویل": 6780,
      "شنگ": 6781,
      "▁نتیجې": 6782,
      "▁پاریس": 6783,
      "▁توم": 6784,
      "▁مودی": 6785,
      "▁کتلی": 6786,
      "▁کوچنیو": 6787,
      "▁پرمختیا": 6788,
      "منټ": 6789,
      "ارض": 6790,
      "▁نېږدې": 6791,
      "▁تېرېدو": 6792,
      "▁زخم": 6793,
      "▁ویسټ": 6794,
      "▁ناروغان": 6795,
      "▁څاروی": 6796,
      "▁لقب": 6797,
      "▁اوسیدونکو": 6798,
      "▁لست": 6799,
      "▁سختی": 6800,
      "▁پوړ": 6801,
      "▁ښخ": 6802,
      "▁اتم": 6803,
      "▁غسل": 6804,
      "▁تقاض": 6805,
      "▁ځواکمن": 6806,
      "ظمی": 6807,
      "▁ودی": 6808,
      "▁کلنو": 6809,
      "▁یتیم": 6810,
      "▁آثار": 6811,
      "▁استفادې": 6812,
      "سیس": 6813,
      "طل": 6814,
      "▁پټی": 6815,
      "▁سوم": 6816,
      "▁العمل": 6817,
      "▁عمره": 6818,
      "▁زړور": 6819,
      "▁فائده": 6820,
      "▁لګیا": 6821,
      "▁شکن": 6822,
      "▁رانی": 6823,
      "صلی": 6824,
      "▁ناه": 6825,
      "نیزې": 6826,
      "▁فرانسه": 6827,
      "▁شاعری": 6828,
      "▁وردګ": 6829,
      "▁فیس": 6830,
      "تها": 6831,
      "▁ارګانونو": 6832,
      "شیا": 6833,
      "▁ځمونږ": 6834,
      "▁افکارو": 6835,
      "▁غلو": 6836,
      "▁ارادې": 6837,
      "▁میلیارد": 6838,
      "افعی": 6839,
      "قدس": 6840,
      "▁چرګ": 6841,
      "▁ابوب": 6842,
      "▁حجاب": 6843,
      "▁ومنله": 6844,
      "خبری": 6845,
      "نګل": 6846,
      "▁حه": 6847,
      "▁پیوست": 6848,
      "ریر": 6849,
      "▁فاټا": 6850,
      "▁خات": 6851,
      "▁اتومی": 6852,
      "▁کلیسا": 6853,
      "▁سوداګریز": 6854,
      "▁رنه": 6855,
      "▁ورشی": 6856,
      "▁چرې": 6857,
      "▁وور": 6858,
      "▁ارزونې": 6859,
      "▁ګاډی": 6860,
      "▁تحول": 6861,
      "لسو": 6862,
      "▁یب": 6863,
      "▁ورکوونکی": 6864,
      "▁فارو": 6865,
      "▁قوماندانۍ": 6866,
      "▁ضمانت": 6867,
      "▁کردار": 6868,
      "▁ناقانونه": 6869,
      "▁بریښنالیک": 6870,
      "ازت": 6871,
      "▁ریښتیا": 6872,
      "▁اوغ": 6873,
      "ایات": 6874,
      "▁گی": 6875,
      "▁شپاړ": 6876,
      "زون": 6877,
      "▁صفر": 6878,
      "▁ادم": 6879,
      "▁ویک": 6880,
      "▁وړاندیزونه": 6881,
      "▁تود": 6882,
      "اکت": 6883,
      "▁زهر": 6884,
      "زید": 6885,
      "▁افسوس": 6886,
      "▁پرچ": 6887,
      "زول": 6888,
      "▁سق": 6889,
      "خط": 6890,
      "برک": 6891,
      "▁سناتور": 6892,
      "وازن": 6893,
      "▁اپوزی": 6894,
      "▁قضاوت": 6895,
      "▁خپلم": 6896,
      "▁برابرولو": 6897,
      "▁پوستو": 6898,
      "▁مداخله": 6899,
      "▁دنیوی": 6900,
      "▁گټ": 6901,
      "▁ناڅاپی": 6902,
      "▁مسول": 6903,
      "▁سالم": 6904,
      "▁مدافع": 6905,
      "▁دروی": 6906,
      "▁دوکان": 6907,
      "▁حاج": 6908,
      "▁لوېدیځ": 6909,
      "ټیو": 6910,
      "▁میړه": 6911,
      "▁لباس": 6912,
      "الک": 6913,
      "▁پلټنو": 6914,
      "رالله": 6915,
      "▁پانګونه": 6916,
      "▁شود": 6917,
      "▁غزا": 6918,
      "▁مقاماتو": 6919,
      "▁ورسېده": 6920,
      "▁ګمراه": 6921,
      "مس": 6922,
      "▁محاس": 6923,
      "پین": 6924,
      "▁ډنډ": 6925,
      "▁راشه": 6926,
      "غېره": 6927,
      "▁داچی": 6928,
      "ضې": 6929,
      "▁استث": 6930,
      "لئ": 6931,
      "▁دډ": 6932,
      "▁اېم": 6933,
      "▁بحر": 6934,
      "▁اغیزې": 6935,
      "نېټ": 6936,
      "▁بدبخت": 6937,
      "▁محل": 6938,
      "▁ښائی": 6939,
      "▁تقدیر": 6940,
      "▁پنځلس": 6941,
      "▁فقر": 6942,
      "▁شاهدان": 6943,
      "▁وسیلو": 6944,
      "▁څاڅ": 6945,
      "▁صدیقی": 6946,
      "▁قادر": 6947,
      "لاست": 6948,
      "▁ښوونې": 6949,
      "▁پلویان": 6950,
      "راق": 6951,
      "▁څلوېښت": 6952,
      "▁لیبیا": 6953,
      "▁مأ": 6954,
      "▁مدار": 6955,
      "▁ربه": 6956,
      "▁خالص": 6957,
      "▁وپوښتل": 6958,
      "▁غواړې": 6959,
      "▁نښتې": 6960,
      "▁ائ": 6961,
      "▁خپه": 6962,
      "▁دعاء": 6963,
      "▁محفوظ": 6964,
      "▁فیه": 6965,
      "بلی": 6966,
      "▁ظه": 6967,
      "▁دجن": 6968,
      "جیه": 6969,
      "▁کلنی": 6970,
      "▁صفحه": 6971,
      "▁لبن": 6972,
      "وینه": 6973,
      "▁اصف": 6974,
      "▁نصر": 6975,
      "▁ځانی": 6976,
      "▁انګریزانو": 6977,
      "ونیو": 6978,
      "▁راووت": 6979,
      "بورګ": 6980,
      "▁چنده": 6981,
      "▁ګیل": 6982,
      "▁ساحې": 6983,
      "▁عاب": 6984,
      "▁ارواښاد": 6985,
      "▁سمبول": 6986,
      "▁وزیران": 6987,
      "▁خنډونه": 6988,
      "▁کک": 6989,
      "▁فلمونو": 6990,
      "▁مشروعیت": 6991,
      "داشت": 6992,
      "▁ستونزی": 6993,
      "▁واد": 6994,
      "▁چال": 6995,
      "اتر": 6996,
      "▁ملاتړی": 6997,
      "▁شاملې": 6998,
      "▁مکمل": 6999,
      "▁فایل": 7000,
      "▁دیوان": 7001,
      "▁شواهد": 7002,
      "▁نال": 7003,
      "▁کیدونکی": 7004,
      "▁لوستونکو": 7005,
      "▁تعصب": 7006,
      "▁المللی": 7007,
      "▁وسه": 7008,
      "▁غښتلی": 7009,
      "▁قناعت": 7010,
      "▁جاوی": 7011,
      "▁چمتووالی": 7012,
      "ځم": 7013,
      "▁جرا": 7014,
      "▁شوری": 7015,
      "▁شوق": 7016,
      "▁ښکارې": 7017,
      "▁ښاروالۍ": 7018,
      "▁رحیم": 7019,
      "زیو": 7020,
      "▁پاب": 7021,
      "▁لرونکې": 7022,
      "▁سمارټ": 7023,
      "داره": 7024,
      "▁کیږی\r\n": 7025,
      "وبو": 7026,
      "▁میلیارده": 7027,
      "امام": 7028,
      "▁پاکولو": 7029,
      "▁مفتی": 7030,
      "▁بق": 7031,
      "▁سوسی": 7032,
      "▁وکاروی": 7033,
      "▁کلیدی": 7034,
      "▁زیاتېدو": 7035,
      "▁منطق": 7036,
      "▁لکن": 7037,
      "▁اوسیږی": 7038,
      "▁راټی": 7039,
      "▁لیکونکی": 7040,
      "گونو": 7041,
      "▁قواو": 7042,
      "▁شبه": 7043,
      "▁دارو": 7044,
      "▁ناصر": 7045,
      "▁څلویښت": 7046,
      "نیت": 7047,
      "▁باندے": 7048,
      "▁سپاره": 7049,
      "▁الان": 7050,
      "▁الاسلام": 7051,
      "▁ودریږی": 7052,
      "▁اشخاصو": 7053,
      "▁وغېره": 7054,
      "▁وتو": 7055,
      "حده": 7056,
      "▁رابر": 7057,
      "▁غوړی": 7058,
      "▁دهم": 7059,
      "▁پروگرام": 7060,
      "▁اوږه": 7061,
      "▁سېلاب": 7062,
      "▁انجنیر": 7063,
      "▁حنیف": 7064,
      "▁انقلابی": 7065,
      "▁دقیقه": 7066,
      "▁وختی": 7067,
      "▁بلاک": 7068,
      "▁گڼل": 7069,
      "▁عقیدې": 7070,
      "▁حقه": 7071,
      "▁مشکلات": 7072,
      "▁طرحې": 7073,
      "ایا": 7074,
      "▁لیکنو": 7075,
      "▁افرادو": 7076,
      "▁بایل": 7077,
      "▁مدینې": 7078,
      "▁افسرانو": 7079,
      "▁ځوی": 7080,
      "▁قبایلو": 7081,
      "ښمن": 7082,
      "▁غلطی": 7083,
      "▁نمونه": 7084,
      "▁ډیجی": 7085,
      "▁مخونه": 7086,
      "▁شنونکی": 7087,
      "کاس": 7088,
      "سول": 7089,
      "طلب": 7090,
      "مارل": 7091,
      "اړی": 7092,
      "▁هرومرو": 7093,
      "▁هارون": 7094,
      "غت": 7095,
      "▁ټنه": 7096,
      "▁کتلو": 7097,
      "▁لیکوالو": 7098,
      "▁جشن": 7099,
      "▁ایډی": 7100,
      "نځای": 7101,
      "▁مایک": 7102,
      "▁رویټرز": 7103,
      "▁فابری": 7104,
      "▁شوای": 7105,
      "نډا": 7106,
      "▁چهارشنبه": 7107,
      "▁ارزانه": 7108,
      "▁نصرت": 7109,
      "▁نګ": 7110,
      "▁ژوره": 7111,
      "▁الذی": 7112,
      "▁مازی": 7113,
      "▁منافق": 7114,
      "▁نفرت": 7115,
      "▁مجبوره": 7116,
      "▁خپلوان": 7117,
      "▁ډکې": 7118,
      "▁دروغو": 7119,
      "▁دکور": 7120,
      "▁فاصله": 7121,
      "▁بریالۍ": 7122,
      "▁اېس": 7123,
      "▁طریقې": 7124,
      "▁انح": 7125,
      "▁درانه": 7126,
      "▁کرل": 7127,
      "▁ځانونو": 7128,
      "فاع": 7129,
      "گاه": 7130,
      "▁غړې": 7131,
      "▁اچولو": 7132,
      "▁فعالانو": 7133,
      "▁پله": 7134,
      "▁ولاړې": 7135,
      "▁راوستلو": 7136,
      "▁واقعیا": 7137,
      "▁تاکید": 7138,
      "▁قاسم": 7139,
      "▁الهام": 7140,
      "▁عج": 7141,
      "▁نوو": 7142,
      "▁ملیونه": 7143,
      "▁هخه": 7144,
      "▁اتیا": 7145,
      "▁اخبار": 7146,
      "▁بریده": 7147,
      "▁وبلله": 7148,
      "▁ځلو": 7149,
      "▁گڼ": 7150,
      "▁مسئولیت": 7151,
      "▁واشنگ": 7152,
      "▁رون": 7153,
      "▁تندی": 7154,
      "ایعو": 7155,
      "▁ویښ": 7156,
      "▁ګان": 7157,
      "▁طواف": 7158,
      "▁دپی": 7159,
      "▁یله": 7160,
      "▁شخړه": 7161,
      "▁اردوغان": 7162,
      "▁استقل": 7163,
      "▁القرآن": 7164,
      "▁خواهش": 7165,
      "▁ایتلاف": 7166,
      "▁عوامل": 7167,
      "▁الیه": 7168,
      "▁ملو": 7169,
      "▁بازارونو": 7170,
      "▁موی": 7171,
      "▁مثل": 7172,
      "▁اخوند": 7173,
      "▁کړاو": 7174,
      "▁پروسس": 7175,
      "▁وړوکی": 7176,
      "▁اسراییلو": 7177,
      "▁خالق": 7178,
      "▁عجیبه": 7179,
      "▁ځمکی": 7180,
      "▁کرکه": 7181,
      "▁واچول": 7182,
      "▁سرمایه": 7183,
      "▁مصنوعی": 7184,
      "▁ساک": 7185,
      "▁ترانس": 7186,
      "▁صداقت": 7187,
      "▁کلیک": 7188,
      "▁منډه": 7189,
      "▁نبوت": 7190,
      "▁لوړی": 7191,
      "▁لورو": 7192,
      "▁قرا": 7193,
      "▁ووېل": 7194,
      "▁لاړه": 7195,
      "▁عوام": 7196,
      "▁زب": 7197,
      "▁ډولونو": 7198,
      "▁بسته": 7199,
      "ؤمنین": 7200,
      "▁شهر": 7201,
      "سیره": 7202,
      "▁رهبرۍ": 7203,
      "▁نون": 7204,
      "▁وو\r\n": 7205,
      "▁مناسبه": 7206,
      "▁سلوا": 7207,
      "▁وسپاری": 7208,
      "▁یف": 7209,
      "▁یمه": 7210,
      "▁پراختیایی": 7211,
      "▁دمل": 7212,
      "▁مینی": 7213,
      "▁تیز": 7214,
      "کومت": 7215,
      "ےه": 7216,
      "▁پند": 7217,
      "▁شعرونو": 7218,
      "▁بنو": 7219,
      "▁ارزښتونه": 7220,
      "▁جاوید": 7221,
      "▁ضیا": 7222,
      "▁ټانک": 7223,
      "▁اختلافات": 7224,
      "▁انو": 7225,
      "▁عند": 7226,
      "▁هش": 7227,
      "▁خپروی": 7228,
      "▁څارنوال": 7229,
      "▁ګومان": 7230,
      "▁دمخ": 7231,
      "▁ایښود": 7232,
      "▁ټیک": 7233,
      "▁مسوولینو": 7234,
      "▁حوزې": 7235,
      "▁وته": 7236,
      "▁قانع": 7237,
      "▁افراط": 7238,
      "▁څارنوالۍ": 7239,
      "▁ټاکلې": 7240,
      "▁بنسټی": 7241,
      "ړنۍ": 7242,
      "یدلې": 7243,
      "شتې": 7244,
      "▁دوستان": 7245,
      "▁سړو": 7246,
      "▁دیرش": 7247,
      "▁حتمی": 7248,
      "▁سرونه": 7249,
      "▁شعور": 7250,
      "▁دڅ": 7251,
      "لوع": 7252,
      "▁کشور": 7253,
      "▁برتانیا": 7254,
      "▁قابل": 7255,
      "▁ښځم": 7256,
      "▁لېرې": 7257,
      "▁تیریدو": 7258,
      "▁ترین": 7259,
      "▁شرطونه": 7260,
      "▁څنگ": 7261,
      "غاړی": 7262,
      "▁ماز": 7263,
      "▁مورد": 7264,
      "▁انتظامی": 7265,
      "▁اپرېل": 7266,
      "▁ابوبکر": 7267,
      "▁عبدالر": 7268,
      "وام": 7269,
      "▁ګلبدین": 7270,
      "▁عدل": 7271,
      "▁ګرځولی": 7272,
      "▁اکر": 7273,
      "▁گا": 7274,
      "▁غیرت": 7275,
      "▁ډاونلوډ": 7276,
      "▁پرېښودل": 7277,
      "▁منصب": 7278,
      "▁تبصره": 7279,
      "▁لهخوا": 7280,
      "▁معمولی": 7281,
      "▁عاشق": 7282,
      "▁لعل": 7283,
      "▁ګناهونو": 7284,
      "صاب": 7285,
      "▁راوړو": 7286,
      "▁لسیزې": 7287,
      "▁اهداف": 7288,
      "▁لهذا": 7289,
      "لاسی": 7290,
      "▁دستور": 7291,
      "▁زېږ": 7292,
      "▁آزم": 7293,
      "▁فرمایل": 7294,
      "زیه": 7295,
      "▁سراج": 7296,
      "شمیر": 7297,
      "▁هلی": 7298,
      "نیک": 7299,
      "▁خبرونو": 7300,
      "▁وجی": 7301,
      "▁قیمتی": 7302,
      "▁دوحې": 7303,
      "▁ماک": 7304,
      "▁مشروع": 7305,
      "▁مستحق": 7306,
      "▁نظریه": 7307,
      "▁سوداګریزو": 7308,
      "▁پېغمبر": 7309,
      "▁چټکۍ": 7310,
      "▁دودیز": 7311,
      "▁سار": 7312,
      "▁لوبډلم": 7313,
      "▁ساحل": 7314,
      "▁ېه": 7315,
      "▁خارج": 7316,
      "▁پورتنی": 7317,
      "▁یوازینی": 7318,
      "▁ورست": 7319,
      "▁عش": 7320,
      "قانونی": 7321,
      "▁بیارغونې": 7322,
      "▁څپر": 7323,
      "▁معارف": 7324,
      "▁مکه": 7325,
      "▁شینواری": 7326,
      "▁جامه": 7327,
      "لاس": 7328,
      "▁شنا": 7329,
      "ایښت": 7330,
      "▁مشکلاتو": 7331,
      "▁ډبرو": 7332,
      "ګون": 7333,
      "▁ودری": 7334,
      "▁درېیو": 7335,
      "لړ": 7336,
      "کئ": 7337,
      "▁کڅ": 7338,
      "▁شات": 7339,
      "▁فرصتونه": 7340,
      "▁درلودې": 7341,
      "▁نظریات": 7342,
      "▁دعوی": 7343,
      "▁عالمان": 7344,
      "▁اندېښمن": 7345,
      "بته": 7346,
      "▁پامه": 7347,
      "▁وخوری": 7348,
      "▁تقلید": 7349,
      "▁انکشاف": 7350,
      "▁کارونکی": 7351,
      "▁پالنه": 7352,
      "▁پیلوټه": 7353,
      "▁حذف": 7354,
      "▁چلولو": 7355,
      "نون": 7356,
      "▁شپو": 7357,
      "▁جوزجان": 7358,
      "▁وانه": 7359,
      "ایش": 7360,
      "▁اړتیاوو": 7361,
      "▁لینک": 7362,
      "ائلو": 7363,
      "▁څیړنو": 7364,
      "▁وښوده": 7365,
      "▁پروړاندې": 7366,
      "▁دوۍ": 7367,
      "▁مایکرو": 7368,
      "▁اډ": 7369,
      "▁لیده": 7370,
      "فرد": 7371,
      "▁واخلو": 7372,
      "▁زلزلې": 7373,
      "▁تفری": 7374,
      "لال": 7375,
      "▁مصنف": 7376,
      "▁وتړل": 7377,
      "▁هق": 7378,
      "▁حیواناتو": 7379,
      "▁بهار": 7380,
      "▁کډوالۍ": 7381,
      "▁رابطه": 7382,
      "▁پاسپورټ": 7383,
      "▁دنورو": 7384,
      "▁حکومته": 7385,
      "▁صر": 7386,
      "▁انلاین": 7387,
      "▁مامورینو": 7388,
      "أن": 7389,
      "▁سپر": 7390,
      "▁څرگنده": 7391,
      "ړول": 7392,
      "▁نهی": 7393,
      "▁مجله": 7394,
      "▁بهتر": 7395,
      "اوز": 7396,
      "▁اورګ": 7397,
      "▁معاه": 7398,
      "▁بغاوت": 7399,
      "دلاسه": 7400,
      "▁فطرت": 7401,
      "▁بکس": 7402,
      "▁انجام": 7403,
      "▁امل": 7404,
      "▁ډرون": 7405,
      "▁مسلو": 7406,
      "▁ایښودل": 7407,
      "▁سکرین": 7408,
      "رخ": 7409,
      "▁غض": 7410,
      "▁المقدس": 7411,
      "غسې": 7412,
      "▁الذین": 7413,
      "▁ټولنیزې": 7414,
      "▁پچ": 7415,
      "▁غټه": 7416,
      "▁پیژنی": 7417,
      "▁تللې": 7418,
      "ړے": 7419,
      "شنا": 7420,
      "▁کښته": 7421,
      "▁قطع": 7422,
      "▁ژورنالی": 7423,
      "▁فضیلت": 7424,
      "▁عنها": 7425,
      "▁تهدید": 7426,
      "▁نات": 7427,
      "▁مراجعه": 7428,
      "▁داهم": 7429,
      "▁ګوره": 7430,
      "▁وکړای": 7431,
      "▁ډیلی": 7432,
      "▁راوړنو": 7433,
      "ېده": 7434,
      "▁ختمه": 7435,
      "یادت": 7436,
      "▁هلکانو": 7437,
      "خاری": 7438,
      "▁زاده": 7439,
      "▁امپ": 7440,
      "ونډی": 7441,
      "▁همېشه": 7442,
      "▁وتعالی": 7443,
      "▁مغر": 7444,
      "▁لوړوالی": 7445,
      "▁عراقی": 7446,
      "▁برج": 7447,
      "▁زندانونو": 7448,
      "لکه": 7449,
      "▁کاروونکی": 7450,
      "▁ننداره": 7451,
      "پونو": 7452,
      "▁لاله": 7453,
      "▁ګرانه": 7454,
      "ځېدو": 7455,
      "▁اوږدوالی": 7456,
      "▁مردم": 7457,
      "▁سویډن": 7458,
      "▁بامیان": 7459,
      "▁شاعرۍ": 7460,
      "▁انتظام": 7461,
      "▁نارې": 7462,
      "▁پېچ": 7463,
      "▁درستی": 7464,
      "▁رواه": 7465,
      "▁داح": 7466,
      "جیل": 7467,
      "▁ونکړی": 7468,
      "ټره": 7469,
      "▁بدلونونو": 7470,
      "▁نواب": 7471,
      "▁خاوری": 7472,
      "▁دچا": 7473,
      "رود": 7474,
      "▁سیف": 7475,
      "▁دبل": 7476,
      "فیع": 7477,
      "▁اصلاحات": 7478,
      "زونو": 7479,
      "یاسی": 7480,
      "▁خف": 7481,
      "▁قیاس": 7482,
      "لمې": 7483,
      "▁آیتونو": 7484,
      "▁نیکی": 7485,
      "▁مسوولین": 7486,
      "▁جادو": 7487,
      "دلته": 7488,
      "▁بدیل": 7489,
      "▁ننگ": 7490,
      "▁سینما": 7491,
      "▁دمن": 7492,
      "▁دانه": 7493,
      "▁پلورن": 7494,
      "▁رابل": 7495,
      "▁قلعه": 7496,
      "▁صدقه": 7497,
      "▁هسپ": 7498,
      "▁حفظ": 7499,
      "▁بریدګر": 7500,
      "عارو": 7501,
      "▁خه": 7502,
      "کوټ": 7503,
      "▁آغ": 7504,
      "ورته": 7505,
      "▁ننګونو": 7506,
      "▁اغېزې": 7507,
      "اسد": 7508,
      "▁پراس": 7509,
      "▁ولسمشریزو": 7510,
      "▁نښتو": 7511,
      "▁مکلف": 7512,
      "▁دات": 7513,
      "▁نقشه": 7514,
      "▁لوړپوړی": 7515,
      "▁ویټامین": 7516,
      "▁قومند": 7517,
      "▁نبوی": 7518,
      "▁لرغون": 7519,
      "▁هت": 7520,
      "▁قوه": 7521,
      "▁شمس": 7522,
      "▁غبر": 7523,
      "▁دویمې": 7524,
      "▁محاصره": 7525,
      "▁ېوه": 7526,
      "کسل": 7527,
      "▁وسلوال": 7528,
      "▁کېدونکی": 7529,
      "▁جوړو": 7530,
      "▁لېکن": 7531,
      "▁دکابل": 7532,
      "▁خپلمنځی": 7533,
      "▁اړوی": 7534,
      "▁ودان": 7535,
      "▁حتم": 7536,
      "▁سکون": 7537,
      "▁تپوس": 7538,
      "▁اودا": 7539,
      "قیف": 7540,
      "ئه": 7541,
      "یرا": 7542,
      "▁پاکې": 7543,
      "▁څیړنه": 7544,
      "▁طه": 7545,
      "▁تورونو": 7546,
      "▁سکندر": 7547,
      "▁کوز": 7548,
      "نځه": 7549,
      "▁تولیداتو": 7550,
      "▁ترقی": 7551,
      "▁وګټله": 7552,
      "▁دوستۍ": 7553,
      "▁مقصود": 7554,
      "▁عبدالق": 7555,
      "▁پارټۍ": 7556,
      "▁کانګ": 7557,
      "جع": 7558,
      "▁غذ": 7559,
      "▁څېرمه": 7560,
      "▁باس": 7561,
      "▁زامنو": 7562,
      "▁جنازې": 7563,
      "▁کمیشن": 7564,
      "▁امتحان": 7565,
      "کیږی": 7566,
      "▁بنسټونه": 7567,
      "رن": 7568,
      "▁تلپاتې": 7569,
      "▁سمدلاسه": 7570,
      "▁فاط": 7571,
      "قط": 7572,
      "▁پېژ": 7573,
      "▁عظمت": 7574,
      "▁دیا": 7575,
      "▁وټاکی": 7576,
      "▁سړه": 7577,
      "انیت": 7578,
      "▁شافعی": 7579,
      "▁ملام": 7580,
      "▁برنامه": 7581,
      "میز": 7582,
      "جینګ": 7583,
      "دینو": 7584,
      "▁سریلان": 7585,
      "▁اوښکې": 7586,
      "واکی": 7587,
      "▁هېواده": 7588,
      "▁اتلس": 7589,
      "▁معاملې": 7590,
      "▁حقله": 7591,
      "▁اولادونو": 7592,
      "▁وصیت": 7593,
      "▁مړینه": 7594,
      "▁دماغ": 7595,
      "▁آری": 7596,
      "▁همدارنگه": 7597,
      "▁صنایعو": 7598,
      "▁رارسی": 7599,
      "▁کړیده": 7600,
      "▁اجازت": 7601,
      "صح": 7602,
      "▁لوښی": 7603,
      "▁څپې": 7604,
      "ثارو": 7605,
      "واکۍ": 7606,
      "▁پلورل": 7607,
      "▁مخابراتی": 7608,
      "▁امو": 7609,
      "▁طیب": 7610,
      "▁خزانه": 7611,
      "▁ټیسټ": 7612,
      "▁وژغوری": 7613,
      "جۍ": 7614,
      "▁بېله": 7615,
      "▁امانت": 7616,
      "▁بریښنایی": 7617,
      "▁کاس": 7618,
      "▁ټیټه": 7619,
      "▁ټوې": 7620,
      "▁جګړی": 7621,
      "شور": 7622,
      "▁رسالت": 7623,
      "▁فلا": 7624,
      "▁بیعت": 7625,
      "ډیویی": 7626,
      "▁پوهیږو": 7627,
      "یع": 7628,
      "▁جبری": 7629,
      "▁مخل": 7630,
      "▁شېبه": 7631,
      "▁بیلګې": 7632,
      "▁تجهیزاتو": 7633,
      "▁زرغون": 7634,
      "▁ذلک": 7635,
      "ولے": 7636,
      "▁هیلو": 7637,
      "▁همداسی": 7638,
      "▁اوهغه": 7639,
      "▁نح": 7640,
      "▁ساب": 7641,
      "▁لودی": 7642,
      "▁غونډی": 7643,
      "زیات": 7644,
      "▁انز": 7645,
      "▁پېژنی": 7646,
      "▁ننوتلو": 7647,
      "▁واشنگټن": 7648,
      "▁کېد": 7649,
      "▁سفرونه": 7650,
      "فع": 7651,
      "ختی": 7652,
      "▁رکعت": 7653,
      "▁درواغ": 7654,
      "▁افتخار": 7655,
      "▁دوستانه": 7656,
      "▁إن": 7657,
      "▁نمایند": 7658,
      "▁نهایت": 7659,
      "▁اسباب": 7660,
      "▁رسو": 7661,
      "▁کالج": 7662,
      "▁مونږه": 7663,
      "▁برتانوی": 7664,
      "▁برادر": 7665,
      "▁قرن": 7666,
      "▁ډگر": 7667,
      "▁نیوزی": 7668,
      "▁ورا": 7669,
      "▁حکومتونه": 7670,
      "▁انډیز": 7671,
      "▁نوماندانو": 7672,
      "▁سح": 7673,
      "▁پیوستون": 7674,
      "▁ییا": 7675,
      "▁څانګو": 7676,
      "▁اسانتیاوې": 7677,
      "▁مخاطب": 7678,
      "▁وکو": 7679,
      "▁هدفی": 7680,
      "▁کارمندانو": 7681,
      "▁سافټ": 7682,
      "▁غوری": 7683,
      "▁پیرو": 7684,
      "▁مځکه": 7685,
      "▁محد": 7686,
      "▁تث": 7687,
      "▁لوے": 7688,
      "▁مالیه": 7689,
      "▁وزارتونو": 7690,
      "▁زیاتیږی": 7691,
      "▁ایکس": 7692,
      "▁ستراتیژیک": 7693,
      "▁بنیادی": 7694,
      "▁امداد": 7695,
      "▁مصدر": 7696,
      "▁رزق": 7697,
      "▁وول": 7698,
      "▁نکړی": 7699,
      "▁آسانه": 7700,
      "▁بغداد": 7701,
      "▁پیژ": 7702,
      "▁عادلانه": 7703,
      "▁ناستو": 7704,
      "▁معاف": 7705,
      "▁چپه": 7706,
      "نها": 7707,
      "▁ماډل": 7708,
      "▁رشوت": 7709,
      "▁استقلال": 7710,
      "▁خس": 7711,
      "▁لویی": 7712,
      "▁عسکری": 7713,
      "▁لښکرو": 7714,
      "▁وهم": 7715,
      "▁المع": 7716,
      "▁رتبه": 7717,
      "▁پروان": 7718,
      "▁مخالفو": 7719,
      "▁کډه": 7720,
      "وبل": 7721,
      "▁روحیه": 7722,
      "خیر": 7723,
      "▁ګټلی": 7724,
      "واړو": 7725,
      "رادی": 7726,
      "▁ملیون": 7727,
      "روی": 7728,
      "▁راغلاست": 7729,
      "▁ورغی": 7730,
      "نځیر": 7731,
      "▁مرحلې": 7732,
      "▁مربوط": 7733,
      "▁چینی": 7734,
      "▁مبارز": 7735,
      "▁څیزونه": 7736,
      "▁ودروی": 7737,
      "▁غرمې": 7738,
      "▁ټلو": 7739,
      "▁نیمې": 7740,
      "▁ټپیانو": 7741,
      "▁اضطر": 7742,
      "باه": 7743,
      "▁لوبی": 7744,
      "▁صلح": 7745,
      "▁یح": 7746,
      "ژدې": 7747,
      "نیه": 7748,
      "▁بدلې": 7749,
      "کیت": 7750,
      "▁لرلې": 7751,
      "▁عملا": 7752,
      "▁یواځ": 7753,
      "▁اوز": 7754,
      "▁ارزونه": 7755,
      "کولو": 7756,
      "▁روغتونونو": 7757,
      "▁معتبر": 7758,
      "راک": 7759,
      "▁بات": 7760,
      "▁ګلاب": 7761,
      "▁طلوع": 7762,
      "▁نفی": 7763,
      "▁غصب": 7764,
      "کوپ": 7765,
      "▁مترو": 7766,
      "▁کوچنیانو": 7767,
      "▁عباد": 7768,
      "دس": 7769,
      "▁زوال": 7770,
      "▁ناق": 7771,
      "▁موضوعات": 7772,
      "▁هوتک": 7773,
      "▁حاد": 7774,
      "▁بیله": 7775,
      "▁استوګنې": 7776,
      "▁جنجال": 7777,
      "▁طوف": 7778,
      "▁دوبۍ": 7779,
      "▁شعار": 7780,
      "▁څراغ": 7781,
      "▁خپلواکه": 7782,
      "ورنر": 7783,
      "▁لوبډلمشر": 7784,
      "صرو": 7785,
      "▁بانکی": 7786,
      "ړم": 7787,
      "▁وحید": 7788,
      "▁شتمنی": 7789,
      "▁پلورنځی": 7790,
      "▁غرور": 7791,
      "نیزه": 7792,
      "▁بستر": 7793,
      "▁غرونه": 7794,
      "▁همدغو": 7795,
      "ارق": 7796,
      "▁خپرونو": 7797,
      "▁احادیثو": 7798,
      "▁هرکله": 7799,
      "▁پوهیږم": 7800,
      "▁اغا": 7801,
      "▁نوملړ": 7802,
      "▁ډیو": 7803,
      "▁رادیو": 7804,
      "▁مفعول": 7805,
      "▁مظاهرو": 7806,
      "▁لرګ": 7807,
      "▁تشن": 7808,
      "▁بندګانو": 7809,
      "▁ټرانس": 7810,
      "▁تقوی": 7811,
      "▁میم": 7812,
      "▁کرایه": 7813,
      "▁معلوماتی": 7814,
      "▁نصیب": 7815,
      "▁مته": 7816,
      "▁پوټکی": 7817,
      "ځولو": 7818,
      "▁نکل": 7819,
      "▁فیر": 7820,
      "▁اړخیزو": 7821,
      "▁خواخوږی": 7822,
      "▁واړوی": 7823,
      "▁بشیر": 7824,
      "▁کفار": 7825,
      "کون": 7826,
      "▁یوشمېر": 7827,
      "▁بیګ": 7828,
      "بیږی": 7829,
      "▁ولیده": 7830,
      "▁طلا": 7831,
      "▁شامله": 7832,
      "پوهنې": 7833,
      "▁وموندل": 7834,
      "▁مجه": 7835,
      "▁پاکی": 7836,
      "▁شیبه": 7837,
      "▁امپرات": 7838,
      "▁کونسل": 7839,
      "▁کارپوهانو": 7840,
      "▁خواست": 7841,
      "▁ڼ": 7842,
      "▁چوکۍ": 7843,
      "▁مکی": 7844,
      "ستله": 7845,
      "▁معیارونو": 7846,
      "▁ناستی": 7847,
      "▁شمېرې": 7848,
      "▁توانې": 7849,
      "کوم": 7850,
      "▁لرګی": 7851,
      "▁خوشال": 7852,
      "▁لیوالتیا": 7853,
      "▁ښارګو": 7854,
      "▁ډیجیټل": 7855,
      "▁مصطفی": 7856,
      "▁استخدام": 7857,
      "▁نهو": 7858,
      "▁ومو": 7859,
      "▁اتوم": 7860,
      "▁دبه": 7861,
      "▁قربان": 7862,
      "▁تغی": 7863,
      "▁بیایی": 7864,
      "پونه": 7865,
      "▁مشاور": 7866,
      "▁زنا": 7867,
      "گرۍ": 7868,
      "▁هنرمند": 7869,
      "▁دملی": 7870,
      "ږدیز": 7871,
      "أت": 7872,
      "▁رط": 7873,
      "▁راوتلی": 7874,
      "▁تدابیر": 7875,
      "▁لود": 7876,
      "▁ورکوله": 7877,
      "▁لبنان": 7878,
      "▁بېړۍ": 7879,
      "▁هڅوی": 7880,
      "▁شپږمه": 7881,
      "▁مثالونه": 7882,
      "فن": 7883,
      "▁باری": 7884,
      "کټور": 7885,
      "▁کموی": 7886,
      "▁قضاء": 7887,
      "▁وېنا": 7888,
      "▁بدلولو": 7889,
      "▁حمزه": 7890,
      "▁اوخ": 7891,
      "▁ارغ": 7892,
      "▁ګلو": 7893,
      "▁ګواکی": 7894,
      "▁یوولس": 7895,
      "▁ویله": 7896,
      "▁ښیې": 7897,
      "▁ماضی": 7898,
      "▁چتر": 7899,
      "▁چارج": 7900,
      "انګی": 7901,
      "▁مغل": 7902,
      "▁بیاکت": 7903,
      "▁خواړو": 7904,
      "▁سیستان": 7905,
      "عیه": 7906,
      "▁وډ": 7907,
      "▁نط": 7908,
      "▁راوو": 7909,
      "▁کورته": 7910,
      "▁اکسی": 7911,
      "▁وگر": 7912,
      "▁سیاستوالو": 7913,
      "▁انگرې": 7914,
      "▁ګیر": 7915,
      "▁مالونه": 7916,
      "▁لسیزه": 7917,
      "▁اغېزه": 7918,
      "▁داسلامی": 7919,
      "ېران": 7920,
      "▁ټاکی": 7921,
      "▁چنګاښ": 7922,
      "▁نوح": 7923,
      "▁محاکمه": 7924,
      "▁بشریت": 7925,
      "▁دولتونو": 7926,
      "▁الرحیم": 7927,
      "▁واغ": 7928,
      "▁ځپلی": 7929,
      "▁څېره": 7930,
      "▁نظارت": 7931,
      "▁فبروری": 7932,
      "▁غار": 7933,
      "▁متقی": 7934,
      "▁مخابراتو": 7935,
      "▁دامام": 7936,
      "▁هان": 7937,
      "▁چارشنبې": 7938,
      "▁مزل": 7939,
      "▁عثمانی": 7940,
      "▁شش": 7941,
      "▁حیرانتیا": 7942,
      "▁تکل": 7943,
      "دلای": 7944,
      "▁پاپ": 7945,
      "▁ګمار": 7946,
      "▁ټویټ": 7947,
      "▁رپوټونه": 7948,
      "▁پنځمه": 7949,
      "پلز": 7950,
      "▁خوشحالی": 7951,
      "▁پاچاه": 7952,
      "▁وژونکی": 7953,
      "▁شنو": 7954,
      "▁ورکې": 7955,
      "▁وائ": 7956,
      "مرغه": 7957,
      "▁کریکټ": 7958,
      "▁فوق": 7959,
      "▁پیروی": 7960,
      "▁کیلومتره": 7961,
      "▁شورو": 7962,
      "▁محسن": 7963,
      "▁عشر": 7964,
      "▁مفس": 7965,
      "▁بمونو": 7966,
      "▁پوهیږئ": 7967,
      "▁اورونو": 7968,
      "▁شتمنۍ": 7969,
      "▁کسب": 7970,
      "▁تگ": 7971,
      "▁ورکه": 7972,
      "▁برق": 7973,
      "▁کلمو": 7974,
      "▁خونړۍ": 7975,
      "ارم": 7976,
      "داران": 7977,
      "▁ستراتیژۍ": 7978,
      "▁مصلحت": 7979,
      "▁ارد": 7980,
      "▁تښتې": 7981,
      "▁جزئی": 7982,
      "▁پرواز": 7983,
      "▁برښنا": 7984,
      "▁یوسفزی": 7985,
      "▁شړ": 7986,
      "▁ورکوئ": 7987,
      "▁افراد": 7988,
      "▁راستون": 7989,
      "▁سریلانکا": 7990,
      "▁عت": 7991,
      "▁حمایت": 7992,
      "▁ځدرا": 7993,
      "▁لاړل": 7994,
      "▁پلازمېنې": 7995,
      "ویډ": 7996,
      "اې": 7997,
      "لنډ": 7998,
      "▁توقیف": 7999,
      "▁پلاستی": 8000,
      "▁ائتلاف": 8001,
      "▁ارزګان": 8002,
      "▁همکارانو": 8003,
      "▁لابر": 8004,
      "▁خصوصا": 8005,
      "سوی": 8006,
      "گانو": 8007,
      "▁کالونو": 8008,
      "▁کمان": 8009,
      "▁خیریه": 8010,
      "▁وېشل": 8011,
      "رفه": 8012,
      "▁مسیحی": 8013,
      "▁باوجود": 8014,
      "▁تز": 8015,
      "▁میرزا": 8016,
      "▁ګورئ": 8017,
      "▁دوک": 8018,
      "▁جنایی": 8019,
      "الق": 8020,
      "▁مقدم": 8021,
      "▁پرانیزی": 8022,
      "▁تاند": 8023,
      "▁جلب": 8024,
      "▁مید": 8025,
      "▁شمېرو": 8026,
      "▁بېلګه": 8027,
      "▁دانې": 8028,
      "▁خش": 8029,
      "▁درود": 8030,
      "▁شاء": 8031,
      "▁لنډې": 8032,
      "اباد": 8033,
      "▁کونډ": 8034,
      "▁منزل": 8035,
      "▁امرېکا": 8036,
      "▁طبعی": 8037,
      "غام": 8038,
      "▁دلایل": 8039,
      "▁ځانگړې": 8040,
      "ونیزیا": 8041,
      "▁رور": 8042,
      "▁لایق": 8043,
      "▁مدرسه": 8044,
      "▁اورو": 8045,
      "▁ورګ": 8046,
      "▁پشت": 8047,
      "انونه": 8048,
      "▁مشترک": 8049,
      "▁دبی": 8050,
      "▁استن": 8051,
      "▁ټینګه": 8052,
      "▁ګوتې": 8053,
      "▁منطقی": 8054,
      "▁اولادونه": 8055,
      "▁قریشی": 8056,
      "▁دټول": 8057,
      "لیټ": 8058,
      "▁راکم": 8059,
      "▁خیرات": 8060,
      "▁راستنې": 8061,
      "▁غچ": 8062,
      "▁فرو": 8063,
      "▁اوح": 8064,
      "▁یعنۍ": 8065,
      "▁غبرګولی": 8066,
      "▁ځانګړتیاوې": 8067,
      "▁نسخې": 8068,
      "▁مؤس": 8069,
      "▁بېلابېل": 8070,
      "▁بهادر": 8071,
      "حاق": 8072,
      "الیف": 8073,
      "▁درستیز": 8074,
      "▁لون": 8075,
      "اینی": 8076,
      "▁لیږل": 8077,
      "▁ماب": 8078,
      "اعه": 8079,
      "▁زیری": 8080,
      "▁منتخب": 8081,
      "سانو": 8082,
      "فتو": 8083,
      "▁دتر": 8084,
      "▁ابا": 8085,
      "▁صادراتو": 8086,
      "▁صوفی": 8087,
      "▁مشرې": 8088,
      "▁څرګندې": 8089,
      "▁پښتنی": 8090,
      "▁الناس": 8091,
      "▁رعایت": 8092,
      "▁فرضی": 8093,
      "▁شمېرل": 8094,
      "▁معبد": 8095,
      "▁رجوع": 8096,
      "▁رواب": 8097,
      "نګو": 8098,
      "▁بیع": 8099,
      "▁پلانونو": 8100,
      "▁دټولو": 8101,
      "▁بندۍ": 8102,
      "▁بودیجې": 8103,
      "▁کوت": 8104,
      "▁سختۍ": 8105,
      "▁معلول": 8106,
      "▁الحمد": 8107,
      "▁مامورین": 8108,
      "موند": 8109,
      "▁غفلت": 8110,
      "▁معاصر": 8111,
      "▁ئۍ": 8112,
      "غوښت": 8113,
      "▁یوس": 8114,
      "▁اذا": 8115,
      "▁هیئت": 8116,
      "▁حبیبی": 8117,
      "▁ظاهره": 8118,
      "▁ږیری": 8119,
      "▁یوبل": 8120,
      "▁واء": 8121,
      "▁اوریدلی": 8122,
      "▁سعادت": 8123,
      "▁تقاضا": 8124,
      "ادری": 8125,
      "▁روږدی": 8126,
      "▁لوبوی": 8127,
      "▁ترو": 8128,
      "▁واستول": 8129,
      "▁ډاډمن": 8130,
      "حنی": 8131,
      "سال": 8132,
      "ویانو": 8133,
      "▁افکار": 8134,
      "▁درانی": 8135,
      "▁غوښې": 8136,
      "▁ځاې": 8137,
      "▁دغلته": 8138,
      "▁اکا": 8139,
      "▁سندرو": 8140,
      "▁څیزونو": 8141,
      "▁مارکیټ": 8142,
      "▁مډ": 8143,
      "▁شخصیتونو": 8144,
      "▁تبادلې": 8145,
      "▁کانال": 8146,
      "▁ومنل": 8147,
      "▁تبادله": 8148,
      "▁پراساس": 8149,
      "▁پورتنۍ": 8150,
      "▁هېوادوالو": 8151,
      "▁کیدلی": 8152,
      "▁بریښی": 8153,
      "▁سبک": 8154,
      "▁لېږل": 8155,
      "▁ماتولو": 8156,
      "▁جال": 8157,
      "▁ورسول": 8158,
      "▁مازیګر": 8159,
      "▁مرم": 8160,
      "▁وتړی": 8161,
      "▁اوکړو": 8162,
      "▁خپګان": 8163,
      "▁ملامت": 8164,
      "▁سعد": 8165,
      "▁دحکومت": 8166,
      "پار": 8167,
      "▁مجموعه": 8168,
      "تیو": 8169,
      "▁گرو": 8170,
      "▁دېش": 8171,
      "▁اوسپنې": 8172,
      "▁تسل": 8173,
      "▁زار": 8174,
      "▁ارا": 8175,
      "▁ترجی": 8176,
      "▁منم": 8177,
      "▁تنبیه": 8178,
      "▁لګېدلی": 8179,
      "▁بوش": 8180,
      "▁پرلپسې": 8181,
      "▁اتمه": 8182,
      "▁محصلین": 8183,
      "▁لیه": 8184,
      "▁څیړونکی": 8185,
      "▁راسی": 8186,
      "▁طاهر": 8187,
      "▁ګمرک": 8188,
      "ولیک": 8189,
      "▁نمونې": 8190,
      "▁فلسفې": 8191,
      "▁توفیق": 8192,
      "▁شدید": 8193,
      "الف": 8194,
      "▁ووتل": 8195,
      "▁خواشینی": 8196,
      "▁مغز": 8197,
      "▁بط": 8198,
      "▁لوریو": 8199,
      "▁ولګول": 8200,
      "▁پوهېږم": 8201,
      "▁اذان": 8202,
      "کے": 8203,
      "▁وفاقی": 8204,
      "▁کاو": 8205,
      "لسل": 8206,
      "▁ژی": 8207,
      "▁حتما": 8208,
      "▁دانسان": 8209,
      "▁لامله": 8210,
      "▁ښاروال": 8211,
      "▁ګوز": 8212,
      "▁مضبوط": 8213,
      "سط": 8214,
      "▁اندام": 8215,
      "▁مریض": 8216,
      "▁لوږې": 8217,
      "شع": 8218,
      "▁حروف": 8219,
      "▁ډای": 8220,
      "▁قصی": 8221,
      "▁ایزو": 8222,
      "▁څرګندیږی": 8223,
      "▁ماسپښین": 8224,
      "▁عذر": 8225,
      "▁غلطه": 8226,
      "▁دخو": 8227,
      "▁منو": 8228,
      "▁ورسېدل": 8229,
      "▁ورتګ": 8230,
      "▁بهتره": 8231,
      "▁برنامې": 8232,
      "▁گواښ": 8233,
      "ګره": 8234,
      "▁کرار": 8235,
      "▁دلایلو": 8236,
      "▁مزدور": 8237,
      "▁واخله": 8238,
      "▁بخښنه": 8239,
      "▁دمر": 8240,
      "▁نننۍ": 8241,
      "حا": 8242,
      "▁شاعران": 8243,
      "سای": 8244,
      "▁سوډ": 8245,
      "▁لیدلې": 8246,
      "▁پریښودل": 8247,
      "▁جایزې": 8248,
      "▁کوکنارو": 8249,
      "▁باعث": 8250,
      "دت": 8251,
      "▁ورسیده": 8252,
      "▁تغییر": 8253,
      "▁میوه": 8254,
      "▁سئ": 8255,
      "▁فلسفی": 8256,
      "▁رست": 8257,
      "ناس": 8258,
      "▁اعلم": 8259,
      "▁باله": 8260,
      "▁قطب": 8261,
      "▁مسلمانو": 8262,
      "▁چت": 8263,
      "▁ابد": 8264,
      "▁تکبیر": 8265,
      "▁غول": 8266,
      "▁جیل": 8267,
      "▁غزې": 8268,
      "▁وارث": 8269,
      "▁نږدی": 8270,
      "▁ځدراڼ": 8271,
      "▁وۍ": 8272,
      "▁مشابه": 8273,
      "▁تیا": 8274,
      "▁انسټ": 8275,
      "▁هغسې": 8276,
      "▁مشغول": 8277,
      "▁مصالح": 8278,
      "واسطه": 8279,
      "▁بالم": 8280,
      "▁آثارو": 8281,
      "▁شریکې": 8282,
      "▁تابعیت": 8283,
      "▁مرد": 8284,
      "▁یونانی": 8285,
      "▁عوایدو": 8286,
      "▁دژوند": 8287,
      "تیږی": 8288,
      "▁دپاسه": 8289,
      "▁واقعه": 8290,
      "▁دسر": 8291,
      "▁هست": 8292,
      "▁وکارول": 8293,
      "▁اکثرا": 8294,
      "▁حدود": 8295,
      "▁افسران": 8296,
      "کاتو": 8297,
      "زیک": 8298,
      "▁ثور": 8299,
      "▁غیرقانونی": 8300,
      "▁قاف": 8301,
      "▁طبقه": 8302,
      "▁اکثرو": 8303,
      "▁مثبتې": 8304,
      "▁ګوندی": 8305,
      "▁هلکان": 8306,
      "▁ورکاوه": 8307,
      "▁وتوان": 8308,
      "▁هب": 8309,
      "▁تعا": 8310,
      "▁اڅکزی": 8311,
      "ښے": 8312,
      "▁ترهه": 8313,
      "▁آه": 8314,
      "لیفونی": 8315,
      "▁ذی": 8316,
      "▁حماس": 8317,
      "▁ټاټ": 8318,
      "▁قې": 8319,
      "▁دهلی": 8320,
      "▁اړولې": 8321,
      "▁اورېدلی": 8322,
      "▁الرحمان": 8323,
      "▁غندلی": 8324,
      "▁راوړې": 8325,
      "▁عزم": 8326,
      "▁موقت": 8327,
      "تیش": 8328,
      "▁تذکره": 8329,
      "نځیو": 8330,
      "▁بنسټیز": 8331,
      "▁مدرسو": 8332,
      "سېره": 8333,
      "▁برېښن": 8334,
      "▁بېګ": 8335,
      "▁لسم": 8336,
      "بلې": 8337,
      "▁روشن": 8338,
      "▁اسید": 8339,
      "بانو": 8340,
      "▁دبا": 8341,
      "▁استولی": 8342,
      "▁اکمال": 8343,
      "▁ټیکنالوژۍ": 8344,
      "چل": 8345,
      "▁اوور": 8346,
      "▁هیلی": 8347,
      "▁دیچې": 8348,
      "خواه": 8349,
      "▁خوشحالۍ": 8350,
      "▁ننوځی": 8351,
      "▁ننوتل": 8352,
      "▁ناکامۍ": 8353,
      "▁رالی": 8354,
      "▁یوازینۍ": 8355,
      "صاحب": 8356,
      "▁ګڼلی": 8357,
      "▁ټینگ": 8358,
      "▁استان": 8359,
      "طیف": 8360,
      "▁چلوونکی": 8361,
      "ایون": 8362,
      "▁انفرادی": 8363,
      "ژې": 8364,
      "▁اړتیاو": 8365,
      "▁هدی": 8366,
      "▁جوماتونو": 8367,
      "▁بالله": 8368,
      "▁حوصله": 8369,
      "▁تړی": 8370,
      "▁روزونکی": 8371,
      "▁کاکا": 8372,
      "▁چند": 8373,
      "▁زحمت": 8374,
      "▁اووم": 8375,
      "▁پېش": 8376,
      "▁میندو": 8377,
      "▁فابریکې": 8378,
      "فاء": 8379,
      "▁تشه": 8380,
      "ځېدل": 8381,
      "▁بدې": 8382,
      "▁بودیجه": 8383,
      "▁ساتونکو": 8384,
      "▁اوږو": 8385,
      "▁تادیه": 8386,
      "فون": 8387,
      "نامو": 8388,
      "▁مله": 8389,
      "▁تښتول": 8390,
      "▁پیښیږی": 8391,
      "▁تام": 8392,
      "▁بها": 8393,
      "▁ونیوه": 8394,
      "▁نزول": 8395,
      "▁مهربان": 8396,
      "▁زاهد": 8397,
      "▁ماما": 8398,
      "▁عنصر": 8399,
      "▁صفات": 8400,
      "▁اډه": 8401,
      "▁راش": 8402,
      "▁امری": 8403,
      "▁تغذ": 8404,
      "▁هاشم": 8405,
      "▁روسته": 8406,
      "▁څرنگه": 8407,
      "▁معاینه": 8408,
      "▁راورسی": 8409,
      "رمی": 8410,
      "▁راروان": 8411,
      "▁یوول": 8412,
      "▁شمار": 8413,
      "کب": 8414,
      "▁کړېده": 8415,
      "▁متا": 8416,
      "▁وود": 8417,
      "▁راوستی": 8418,
      "خواست": 8419,
      "▁مطل": 8420,
      "ثت": 8421,
      "▁محور": 8422,
      "▁بېځایه": 8423,
      "▁میوند": 8424,
      "▁اطلاعات": 8425,
      "▁لابراتو": 8426,
      "▁دریاب": 8427,
      "▁شعری": 8428,
      "▁وټاکه": 8429,
      "▁دائ": 8430,
      "ادل": 8431,
      "▁وږ": 8432,
      "▁مالوماتو": 8433,
      "▁بشار": 8434,
      "▁سکر": 8435,
      "▁مراک": 8436,
      "▁ورله": 8437,
      "▁بېخی": 8438,
      "▁تیل": 8439,
      "▁مطلوب": 8440,
      "▁کشر": 8441,
      "▁څارویو": 8442,
      "▁راحت": 8443,
      "▁هذا": 8444,
      "▁کېم": 8445,
      "▁حیا": 8446,
      "ویې": 8447,
      "▁دېوان": 8448,
      "▁حتا": 8449,
      "▁راټولولو": 8450,
      "▁تحقیقاتو": 8451,
      "▁اچونه": 8452,
      "▁موزیم": 8453,
      "▁فخر": 8454,
      "▁سبزی": 8455,
      "▁معاون": 8456,
      "▁پالنې": 8457,
      "▁خداے": 8458,
      "▁رارسې": 8459,
      "▁عبرت": 8460,
      "▁توجیه": 8461,
      "▁ایو": 8462,
      "▁احرام": 8463,
      "▁ډاکټران": 8464,
      "▁تحقیقات": 8465,
      "▁میکانیزم": 8466,
      "▁واضحه": 8467,
      "▁وواژه": 8468,
      "▁مېشتو": 8469,
      "ئع": 8470,
      "ساب": 8471,
      "▁اتری": 8472,
      "▁فرصتونو": 8473,
      "▁غوښتنی": 8474,
      "▁فرعی": 8475,
      "▁ژورې": 8476,
      "▁تعداد": 8477,
      "▁ورساوه": 8478,
      "ریټ": 8479,
      "▁سکه": 8480,
      "▁عملیاتی": 8481,
      "▁بادغی": 8482,
      "کوونکی": 8483,
      "▁لوستی": 8484,
      "▁څښلو": 8485,
      "قف": 8486,
      "▁ګرې": 8487,
      "▁رټ": 8488,
      "▁فال": 8489,
      "راحت": 8490,
      "▁زبر": 8491,
      "▁بوټ": 8492,
      "▁ادبیات": 8493,
      "▁نعمتونو": 8494,
      "▁عوض": 8495,
      "▁توغندیو": 8496,
      "▁مینځپانګې": 8497,
      "زاب": 8498,
      "▁رسید": 8499,
      "▁نهم": 8500,
      "▁فان": 8501,
      "▁ځوانۍ": 8502,
      "▁بام": 8503,
      "▁فاض": 8504,
      "▁زرداری": 8505,
      "▁اختلافاتو": 8506,
      "▁مرکب": 8507,
      "قیه": 8508,
      "▁واز": 8509,
      "دیده": 8510,
      "▁فیصلې": 8511,
      "▁رویه": 8512,
      "▁لوړولو": 8513,
      "▁مارک": 8514,
      "▁خونړی": 8515,
      "برې": 8516,
      "▁العلم": 8517,
      "کارۍ": 8518,
      "▁کرکټر": 8519,
      "▁جنګونو": 8520,
      "▁جمهورخبری": 8521,
      "▁ړه": 8522,
      "کیانو": 8523,
      "▁اچونې": 8524,
      "▁څوارلس": 8525,
      "▁تیوری": 8526,
      "کابل": 8527,
      "▁غنمو": 8528,
      "لیدو": 8529,
      "▁آپیل": 8530,
      "▁ګرځول": 8531,
      "وائ": 8532,
      "▁پریس": 8533,
      "تۍ": 8534,
      "▁شپږی": 8535,
      "▁المر": 8536,
      "▁سوپر": 8537,
      "▁ایډ": 8538,
      "کړم": 8539,
      "▁موسسو": 8540,
      "▁وات": 8541,
      "▁علیکم": 8542,
      "فیظ": 8543,
      "▁ممن": 8544,
      "▁تدا": 8545,
      "▁وید": 8546,
      "▁ګوزار": 8547,
      "▁یادېږی": 8548,
      "▁کومک": 8549,
      "▁ربی": 8550,
      "▁الغ": 8551,
      "▁رکعته": 8552,
      "▁هورم": 8553,
      "▁حې": 8554,
      "▁خوږو": 8555,
      "▁نافذ": 8556,
      "▁لول": 8557,
      "▁ډسمبر": 8558,
      "▁کوڅو": 8559,
      "زله": 8560,
      "▁ړو": 8561,
      "▁هرچا": 8562,
      "▁درنښت": 8563,
      "▁پنډ": 8564,
      "▁وام": 8565,
      "▁وتړ": 8566,
      "▁فدراسیون": 8567,
      "سونو": 8568,
      "▁تلی": 8569,
      "▁ترینه": 8570,
      "▁کمزورې": 8571,
      "▁ډونلډ": 8572,
      "▁عناصر": 8573,
      "▁غنم": 8574,
      "▁ګټونکی": 8575,
      "▁نښو": 8576,
      "▁صحبه": 8577,
      "▁سمیع": 8578,
      "▁وګرځوی": 8579,
      "▁یهودانو": 8580,
      "▁خواږه": 8581,
      "بط": 8582,
      "▁متل": 8583,
      "▁کړکۍ": 8584,
      "▁وه\r\n": 8585,
      "▁اوریزو": 8586,
      "▁ګواښونه": 8587,
      "▁پیغامونه": 8588,
      "وهغه": 8589,
      "▁فتوا": 8590,
      "کارانو": 8591,
      "▁اسحاق": 8592,
      "ازو": 8593,
      "▁پیټس": 8594,
      "▁سپریم": 8595,
      "▁سترگې": 8596,
      "▁راوړنه": 8597,
      "▁فاروق": 8598,
      "▁وګوره": 8599,
      "▁استادان": 8600,
      "▁شو\r\n": 8601,
      "▁شهباز": 8602,
      "▁کېدلی": 8603,
      "▁بهانه": 8604,
      "▁پوهیدل": 8605,
      "▁کڅو": 8606,
      "▁اجمل": 8607,
      "▁وواه": 8608,
      "▁لیونی": 8609,
      "▁منابعو": 8610,
      "▁رحمن": 8611,
      "▁عملونه": 8612,
      "▁پادشاه": 8613,
      "▁ایستلی": 8614,
      "▁ممت": 8615,
      "▁اطمین": 8616,
      "▁عبدالب": 8617,
      "▁ګردی": 8618,
      "▁ددے": 8619,
      "▁علاقې": 8620,
      "▁جرگې": 8621,
      "صم": 8622,
      "▁وروا": 8623,
      "▁عدد": 8624,
      "اعات": 8625,
      "▁نظریې": 8626,
      "▁خاک": 8627,
      "▁رومی": 8628,
      "▁مسیر": 8629,
      "▁رشید": 8630,
      "▁ذهنیت": 8631,
      "▁یان": 8632,
      "▁عناصرو": 8633,
      "▁ټکنالوژۍ": 8634,
      "▁بیې": 8635,
      "▁متف": 8636,
      "▁دجم": 8637,
      "▁نوازشریف": 8638,
      "▁وتښت": 8639,
      "▁توصی": 8640,
      "▁ییزه": 8641,
      "▁لیندۍ": 8642,
      "▁تفتیش": 8643,
      "▁اقلیم": 8644,
      "▁پرانستل": 8645,
      "▁ړی": 8646,
      "ولپاره": 8647,
      "▁پیله": 8648,
      "میږی": 8649,
      "▁اخیستونکی": 8650,
      "اغ": 8651,
      "▁اجازې": 8652,
      "▁مدینه": 8653,
      "▁موجودې": 8654,
      "▁ټینگار": 8655,
      "▁عائ": 8656,
      "▁سرد": 8657,
      "▁ابتدایی": 8658,
      "لاء": 8659,
      "▁غوږونو": 8660,
      "▁فرهنگی": 8661,
      "▁درلودلو": 8662,
      "▁یرغ": 8663,
      "▁بسی": 8664,
      "▁لالا": 8665,
      "▁ایوب": 8666,
      "▁ونیسو": 8667,
      "▁کېږی\r\n": 8668,
      "▁احتجاجی": 8669,
      "شنبی": 8670,
      "▁شکست": 8671,
      "▁دهند": 8672,
      "▁ښوونه": 8673,
      "▁دوکتور": 8674,
      "▁قومندانۍ": 8675,
      "▁توپونو": 8676,
      "▁هاو": 8677,
      "زیونی": 8678,
      "▁ولګوی": 8679,
      "▁رجب": 8680,
      "▁فاسد": 8681,
      "شب": 8682,
      "▁ځوابونه": 8683,
      "▁نوکر": 8684,
      "▁خلاصی": 8685,
      "▁لسمه": 8686,
      "▁رغونې": 8687,
      "▁پرتې": 8688,
      "▁پاڼی": 8689,
      "▁تجهیزات": 8690,
      "▁پاکو": 8691,
      "▁پیټسبورګ": 8692,
      "▁مکان": 8693,
      "▁ګنې": 8694,
      "نګیانو": 8695,
      "▁ایجنسۍ": 8696,
      "▁سعی": 8697,
      "▁ټېسټ": 8698,
      "▁مشاه": 8699,
      "اویه": 8700,
      "▁دوبی": 8701,
      "▁ووهی": 8702,
      "▁البقره": 8703,
      "▁داخله": 8704,
      "▁فهم": 8705,
      "▁انور": 8706,
      "▁گناه": 8707,
      "▁پوښتنی": 8708,
      "▁سپیڅلی": 8709,
      "وهی": 8710,
      "▁وکا": 8711,
      "▁سرښ": 8712,
      "انیږی": 8713,
      "دغه": 8714,
      "گون": 8715,
      "▁مجیب": 8716,
      "▁نیشنل": 8717,
      "▁وزیرې": 8718,
      "▁مالونو": 8719,
      "▁المسلم": 8720,
      "ټرې": 8721,
      "▁ییزې": 8722,
      "▁کڅوړه": 8723,
      "آء": 8724,
      "▁ماشومت": 8725,
      "▁اندونیزیا": 8726,
      "▁پیپلز": 8727,
      "▁احد": 8728,
      "▁اړو": 8729,
      "▁درکه": 8730,
      "▁ګډوډ": 8731,
      "▁مالدارۍ": 8732,
      "▁ضلعو": 8733,
      "طاف": 8734,
      "▁بڼې": 8735,
      "▁ګانې": 8736,
      "▁روغې": 8737,
      "▁شوراګانو": 8738,
      "▁پلټنه": 8739,
      "▁کروند": 8740,
      "▁اولم": 8741,
      "▁غمی": 8742,
      "▁وکیلان": 8743,
      "دنی": 8744,
      "▁اخوا": 8745,
      "▁ځیرک": 8746,
      "▁هوی": 8747,
      "▁کلیوالو": 8748,
      "▁غورځول": 8749,
      "▁نعیم": 8750,
      "▁وچک": 8751,
      "▁ټاکنیز": 8752,
      "تت": 8753,
      "▁عموم": 8754,
      "▁ویشتل": 8755,
      "▁پلازمینه": 8756,
      "▁توپوه": 8757,
      "▁بښنه": 8758,
      "ابن": 8759,
      "▁ناحی": 8760,
      "▁وژغور": 8761,
      "▁بدلیږی": 8762,
      "▁لاړو": 8763,
      "ډیر": 8764,
      "▁ګذ": 8765,
      "▁تشویش": 8766,
      "▁نمی": 8767,
      "ولیو": 8768,
      "▁لیس": 8769,
      "▁غاف": 8770,
      "▁ښائ": 8771,
      "▁خوړلی": 8772,
      "▁پرس": 8773,
      "فرت": 8774,
      "▁ریډیو": 8775,
      "نسی": 8776,
      "وبې": 8777,
      "▁لفظی": 8778,
      "▁تشویق": 8779,
      "▁اعش": 8780,
      "▁مطابقت": 8781,
      "▁برتانیې": 8782,
      "▁مرستندوی": 8783,
      "▁څارونکی": 8784,
      "▁نظریاتو": 8785,
      "▁ځنګل": 8786,
      "▁عری": 8787,
      "▁قات": 8788,
      "▁یش": 8789,
      "پالو": 8790,
      "▁نسبتا": 8791,
      "▁اپلی": 8792,
      "▁مزارشریف": 8793,
      "اقبت": 8794,
      "▁پوسته": 8795,
      "غفار": 8796,
      "▁و\r\n": 8797,
      "▁همدر": 8798,
      "▁بیاهم": 8799,
      "▁بعضې": 8800,
      "▁نمر": 8801,
      "▁دیارلس": 8802,
      "▁ستنی": 8803,
      "څرګند": 8804,
      "▁احص": 8805,
      "ایوی": 8806,
      "▁جوش": 8807,
      "▁ورننو": 8808,
      "▁برابرول": 8809,
      "▁رسېدل": 8810,
      "▁خلیج": 8811,
      "▁کنی": 8812,
      "▁للا": 8813,
      "▁الظ": 8814,
      "▁ګورنر": 8815,
      "▁کیری": 8816,
      "▁سرمن": 8817,
      "حکم": 8818,
      "▁غرو": 8819,
      "▁اخری": 8820,
      "ضاء": 8821,
      "▁اېن": 8822,
      "▁بحثونو": 8823,
      "▁قرائت": 8824,
      "▁ورسو": 8825,
      "▁فرید": 8826,
      "▁تېرېږی": 8827,
      "▁سیمین": 8828,
      "▁شکمن": 8829,
      "▁ټیمونو": 8830,
      "▁مایع": 8831,
      "▁حیدر": 8832,
      "▁ایپل": 8833,
      "▁زیاتولو": 8834,
      "ناکه": 8835,
      "▁غونډۍ": 8836,
      "▁ولیکی": 8837,
      "▁سرمشری": 8838,
      "سار": 8839,
      "▁کما": 8840,
      "▁ناوې": 8841,
      "▁حنفی": 8842,
      "ډونه": 8843,
      "▁عبدالع": 8844,
      "▁مذاک": 8845,
      "▁دحضرت": 8846,
      "▁قصد": 8847,
      "یما": 8848,
      "▁پاخه": 8849,
      "▁خوبه": 8850,
      "کوف": 8851,
      "▁ځوړ": 8852,
      "▁پیشو": 8853,
      "▁جناب": 8854,
      "▁لوظ": 8855,
      "حیح": 8856,
      "▁انډول": 8857,
      "▁رسنیز": 8858,
      "▁نامم": 8859,
      "▁رالې": 8860,
      "▁لګښتونه": 8861,
      "▁اورېدل": 8862,
      "▁ولادی": 8863,
      "▁ښارونه": 8864,
      "▁اهم": 8865,
      "▁دخدای": 8866,
      "▁سړیو": 8867,
      "▁النس": 8868,
      "▁آیتونه": 8869,
      "▁لګښتونو": 8870,
      "▁څرک": 8871,
      "▁هواری": 8872,
      "▁راخ": 8873,
      "▁اورپکو": 8874,
      "▁څپرکی": 8875,
      "▁سافټویر": 8876,
      "▁بدلوی": 8877,
      "▁ګوزڼ": 8878,
      "گیر": 8879,
      "▁کج": 8880,
      "غلل": 8881,
      "ائیل": 8882,
      "▁ماتو": 8883,
      "▁توه": 8884,
      "شال": 8885,
      "▁فیصل": 8886,
      "▁أم": 8887,
      "▁مشهورو": 8888,
      "رشید": 8889,
      "▁سطح": 8890,
      "▁بادغیس": 8891,
      "▁دپر": 8892,
      "▁پلرونو": 8893,
      "▁غصه": 8894,
      "▁ویونکی": 8895,
      "▁برانډ": 8896,
      "احمد": 8897,
      "اتانو": 8898,
      "▁زمکې": 8899,
      "▁منظمه": 8900,
      "▁ورستیو": 8901,
      "▁آپ": 8902,
      "▁فریاد": 8903,
      "▁وهڅوی": 8904,
      "▁کښلی": 8905,
      "زمه": 8906,
      "▁تصرف": 8907,
      "▁جیم": 8908,
      "▁ګرامه": 8909,
      "▁خصوص": 8910,
      "▁قومونه": 8911,
      "▁راوړه": 8912,
      "▁جورج": 8913,
      "▁ټپه": 8914,
      "اریخ": 8915,
      "▁جنازه": 8916,
      "▁شرابو": 8917,
      "▁قت": 8918,
      "▁گرځی": 8919,
      "▁انډی": 8920,
      "▁مرغومی": 8921,
      "▁پیمانه": 8922,
      "زت": 8923,
      "▁اظ": 8924,
      "▁ولد": 8925,
      "▁تیمور": 8926,
      "سونه": 8927,
      "▁لېوالتیا": 8928,
      "▁ژورو": 8929,
      "▁نماینده": 8930,
      "ئین": 8931,
      "▁دمی": 8932,
      "▁ښېګ": 8933,
      "▁مخام": 8934,
      "▁ورکشا": 8935,
      "▁راټولې": 8936,
      "▁مردان": 8937,
      "▁رگ": 8938,
      "ادا": 8939,
      "▁معلم": 8940,
      "▁گام": 8941,
      "▁راکړې": 8942,
      "▁زلزله": 8943,
      "▁وگړی": 8944,
      "▁محیط": 8945,
      "▁راستانه": 8946,
      "▁لارښوونو": 8947,
      "▁خوبونه": 8948,
      "▁اطمینان": 8949,
      "الیه": 8950,
      "▁کوونکے": 8951,
      "▁نومول": 8952,
      "قال": 8953,
      "▁لیت": 8954,
      "▁هېڅوک": 8955,
      "▁تندر": 8956,
      "▁درخواست": 8957,
      "منا": 8958,
      "▁مشره": 8959,
      "▁کاڼی": 8960,
      "▁منبع": 8961,
      "▁نومیږی": 8962,
      "▁اخلو": 8963,
      "کیشن": 8964,
      "▁خواره": 8965,
      "▁وینم": 8966,
      "ضم": 8967,
      "▁اباسین": 8968,
      "▁وغو": 8969,
      "▁سکرو": 8970,
      "ېن": 8971,
      "▁جوب": 8972,
      "▁فوځی": 8973,
      "▁پینګ": 8974,
      "▁قاعده": 8975,
      "▁اورېدو": 8976,
      "ستیا": 8977,
      "▁نوټ": 8978,
      "▁حجر": 8979,
      "▁نورمال": 8980,
      "▁باجوړ": 8981,
      "▁ټای": 8982,
      "▁نسب": 8983,
      "▁نقطه": 8984,
      "▁خطرناکه": 8985,
      "▁لېږدول": 8986,
      "خانو": 8987,
      "صن": 8988,
      "▁پوړو": 8989,
      "▁لیکه": 8990,
      "▁تبه": 8991,
      "▁سرمنشی": 8992,
      "ستلې": 8993,
      "▁ایله": 8994,
      "▁جگړو": 8995,
      "▁ورتل": 8996,
      "یف": 8997,
      "▁غټو": 8998,
      "▁ګرځوی": 8999,
      "▁شفافیت": 9000,
      "هه": 9001,
      "▁چیک": 9002,
      "▁معرفت": 9003,
      "▁تیت": 9004,
      "▁خلو": 9005,
      "▁نشم": 9006,
      "صلې": 9007,
      "▁جمی": 9008,
      "▁مسوده": 9009,
      "▁شفیق": 9010,
      "▁افشا": 9011,
      "▁سپارلی": 9012,
      "▁تعدیل": 9013,
      "▁گڼی": 9014,
      "▁پھ": 9015,
      "▁دیته": 9016,
      "▁مهدی": 9017,
      "▁پوښښ": 9018,
      "▁شتمنیو": 9019,
      "▁دکار": 9020,
      "▁نازک": 9021,
      "▁پراخو": 9022,
      "▁مجموعی": 9023,
      "▁خپریدو": 9024,
      "▁ځائے": 9025,
      "▁اځ": 9026,
      "▁داوړ": 9027,
      "دوس": 9028,
      "▁هډوکی": 9029,
      "▁اسدالله": 9030,
      "▁گران": 9031,
      "▁دځان": 9032,
      "▁حش": 9033,
      "▁مشاع": 9034,
      "▁وڅې": 9035,
      "نین": 9036,
      "▁لمانځ": 9037,
      "▁ککړتیا": 9038,
      "▁ګاډ": 9039,
      "▁عقلی": 9040,
      "▁مشکوک": 9041,
      "▁کارب": 9042,
      "▁سیکول": 9043,
      "▁قبیله": 9044,
      "▁تاسیساتو": 9045,
      "▁درشل": 9046,
      "▁بیړه": 9047,
      "▁بریت": 9048,
      "▁ورسیدل": 9049,
      "▁رپوټونو": 9050,
      "ستون": 9051,
      "▁څنډه": 9052,
      "▁قضا": 9053,
      "▁پهکې": 9054,
      "▁اخند": 9055,
      "▁هزار": 9056,
      "▁دپښتو": 9057,
      "مز": 9058,
      "▁اخراج": 9059,
      "▁الته": 9060,
      "▁کرده": 9061,
      "▁ښارګوټی": 9062,
      "▁راستنی": 9063,
      "▁موث": 9064,
      "▁روزګار": 9065,
      "▁الاح": 9066,
      "▁سټې": 9067,
      "▁چېری": 9068,
      "شیه": 9069,
      "▁علماؤ": 9070,
      "▁جهنم": 9071,
      "▁لنډیز": 9072,
      "▁ماهی": 9073,
      "▁تحری": 9074,
      "▁توقع": 9075,
      "▁شکایتونه": 9076,
      "▁ساحو": 9077,
      "▁لرغونو": 9078,
      "ړوی": 9079,
      "یان": 9080,
      "▁برسیره": 9081,
      "اتیکو": 9082,
      "▁ټوېټر": 9083,
      "▁داؤد": 9084,
      "▁انه": 9085,
      "▁جوا": 9086,
      "▁شرف": 9087,
      "▁رفت": 9088,
      "▁فد": 9089,
      "▁خلاصې": 9090,
      "▁جرگه": 9091,
      "فیر": 9092,
      "▁اوګ": 9093,
      "▁فیرو": 9094,
      "ندا": 9095,
      "▁بلد": 9096,
      "نهاد": 9097,
      "▁راوګر": 9098,
      "▁ماهر": 9099,
      "▁ظاهرا": 9100,
      "▁تنا": 9101,
      "▁هستو": 9102,
      "▁غویی": 9103,
      "▁کبیر": 9104,
      "▁هاشمی": 9105,
      "▁مۍ": 9106,
      "▁اوومه": 9107,
      "▁کوڅه": 9108,
      "▁پاکستانه": 9109,
      "▁هغوې": 9110,
      "▁ولولی": 9111,
      "▁لمسی": 9112,
      "▁صلیب": 9113,
      "▁لهجه": 9114,
      "شید": 9115,
      "▁وارې": 9116,
      "▁اخستی": 9117,
      "▁هغوۍ": 9118,
      "یاه": 9119,
      "▁فص": 9120,
      "▁زمانی": 9121,
      "▁ملګرومل": 9122,
      "▁اښ": 9123,
      "▁اوکړی": 9124,
      "▁الصلوه": 9125,
      "▁نول": 9126,
      "▁اخرت": 9127,
      "▁دښمنۍ": 9128,
      "▁راښکاره": 9129,
      "▁وردګو": 9130,
      "▁هیچ": 9131,
      "▁لعنت": 9132,
      "ویلی": 9133,
      "▁واوره": 9134,
      "▁لیکونه": 9135,
      "▁عنهم": 9136,
      "▁خواوې": 9137,
      "▁ترورې": 9138,
      "▁پېژندنې": 9139,
      "▁ترجیح": 9140,
      "▁نفاق": 9141,
      "▁لغت": 9142,
      "▁اتباعو": 9143,
      "▁سوز": 9144,
      "▁الوتنې": 9145,
      "ضع": 9146,
      "▁داب": 9147,
      "▁رحیمی": 9148,
      "▁ایچ": 9149,
      "▁دروې": 9150,
      "▁فهر": 9151,
      "▁منګل": 9152,
      "▁حیض": 9153,
      "▁خواری": 9154,
      "▁مثبته": 9155,
      "▁اوریزه": 9156,
      "▁توازن": 9157,
      "▁ورکوم": 9158,
      "ښوول": 9159,
      "ځېدلی": 9160,
      "▁شمیرل": 9161,
      "▁عمرو": 9162,
      "▁ترمذی": 9163,
      "▁مانه": 9164,
      "▁شیدو": 9165,
      "▁مېړ": 9166,
      "قوف": 9167,
      "▁لولی": 9168,
      "▁پرسون": 9169,
      "▁وائې": 9170,
      "▁معامل": 9171,
      "▁بدنی": 9172,
      "▁نما": 9173,
      "ستن": 9174,
      "▁وټ": 9175,
      "▁خن": 9176,
      "▁توکل": 9177,
      "▁آد": 9178,
      "▁تېروتنه": 9179,
      "سام": 9180,
      "ویږی": 9181,
      "▁ستراتې": 9182,
      "▁څرګندونه": 9183,
      "▁پوخ": 9184,
      "▁کمېټۍ": 9185,
      "الانو": 9186,
      "▁علما": 9187,
      "▁اړخیزې": 9188,
      "لیمان": 9189,
      "▁ولکې": 9190,
      "▁مناظ": 9191,
      "▁دپو": 9192,
      "▁تفسیو": 9193,
      "▁غبرګونونه": 9194,
      "▁وزیری": 9195,
      "▁یحی": 9196,
      "اکې": 9197,
      "عهد": 9198,
      "▁العاده": 9199,
      "▁کفایت": 9200,
      "▁راهسې": 9201,
      "▁متفق": 9202,
      "▁اجنډا": 9203,
      "▁ونلری": 9204,
      "▁پرمختګونو": 9205,
      "▁لوبولی": 9206,
      "▁تسلی": 9207,
      "▁جیب": 9208,
      "▁واورئ": 9209,
      "▁څک": 9210,
      "▁مشرک": 9211,
      "▁نفر": 9212,
      "▁څېرې": 9213,
      "▁ټلویزیون": 9214,
      "لور": 9215,
      "▁مرګه": 9216,
      "▁خیالی": 9217,
      "▁ګورم": 9218,
      "▁کړنه": 9219,
      "▁ورکولی": 9220,
      "▁آو": 9221,
      "▁نوروز": 9222,
      "▁متحدینو": 9223,
      "څومره": 9224,
      "▁ماح": 9225,
      "پوهانو": 9226,
      "▁بېلتون": 9227,
      "▁جول": 9228,
      "صوف": 9229,
      "▁عکسونو": 9230,
      "▁بودجې": 9231,
      "▁کشت": 9232,
      "▁ضلعې": 9233,
      "▁تدار": 9234,
      "▁دینه": 9235,
      "▁اداک": 9236,
      "▁واوسی": 9237,
      "▁رفع": 9238,
      "▁فدرالی": 9239,
      "یات": 9240,
      "▁درنې": 9241,
      "▁بګرام": 9242,
      "▁عدلیې": 9243,
      "ربای": 9244,
      "▁لیږدول": 9245,
      "▁یود": 9246,
      "▁تبلیغات": 9247,
      "▁اسا": 9248,
      "▁تبعی": 9249,
      "▁خاصو": 9250,
      "▁ریښې": 9251,
      "▁حیاتی": 9252,
      "کات": 9253,
      "▁له‌": 9254,
      "▁پرخ": 9255,
      "▁تنها": 9256,
      "ټاکنو": 9257,
      "▁څاه": 9258,
      "▁لاسوهنه": 9259,
      "▁استانبول": 9260,
      "▁رساله": 9261,
      "▁فارس": 9262,
      "▁مضاف": 9263,
      "▁ټیکنالوژی": 9264,
      "▁ځناور": 9265,
      "▁وغوښت": 9266,
      "کوت": 9267,
      "▁کتار": 9268,
      "▁تفکر": 9269,
      "▁سینې": 9270,
      "▁معا": 9271,
      "▁گړ": 9272,
      "▁موندلې": 9273,
      "▁بایس": 9274,
      "▁بعضی": 9275,
      "▁حساسیت": 9276,
      "▁څاڅکی": 9277,
      "اسره": 9278,
      "▁رقیب": 9279,
      "▁سویل": 9280,
      "▁رسیدلې": 9281,
      "▁جدول": 9282,
      "▁ورم": 9283,
      "▁پریږدئ": 9284,
      "▁ازادې": 9285,
      "▁غندنه": 9286,
      "▁ارامه": 9287,
      "منځه": 9288,
      "▁ګټلې": 9289,
      "▁راجع": 9290,
      "▁حفیظ": 9291,
      "غز": 9292,
      "▁خښ": 9293,
      "▁کرون": 9294,
      "▁تشریف": 9295,
      "▁ژغورل": 9296,
      "▁دهد": 9297,
      "▁صاب": 9298,
      "▁وسپار": 9299,
      "▁سبق": 9300,
      "▁خوندور": 9301,
      "▁هام": 9302,
      "ریدی": 9303,
      "▁شوی\r\n": 9304,
      "▁اقتدار": 9305,
      "▁طوفان": 9306,
      "▁قبوله": 9307,
      "▁دروازو": 9308,
      "▁خونو": 9309,
      "▁اوبیا": 9310,
      "▁اعشاریه": 9311,
      "▁مربع": 9312,
      "▁کولے": 9313,
      "▁نېشنل": 9314,
      "یرت": 9315,
      "▁الث": 9316,
      "▁قرآ": 9317,
      "ښتونو": 9318,
      "▁تېز": 9319,
      "ائق": 9320,
      "▁خیلو": 9321,
      "▁نیمروز": 9322,
      "▁مېز": 9323,
      "▁قضیو": 9324,
      "▁دشمن": 9325,
      "▁تعین": 9326,
      "▁سهیل": 9327,
      "▁جیو": 9328,
      "▁شیدې": 9329,
      "هل": 9330,
      "کوزی": 9331,
      "▁پشم": 9332,
      "▁شونې": 9333,
      "▁کارونې": 9334,
      "▁وتلې": 9335,
      "لېنډ": 9336,
      "▁خېر": 9337,
      "▁رځ": 9338,
      "▁مرکچی": 9339,
      "▁کینا": 9340,
      "▁الاع": 9341,
      "▁سپاهی": 9342,
      "▁راکړئ": 9343,
      "▁قرآنکریم": 9344,
      "فانه": 9345,
      "نبی": 9346,
      "ومان": 9347,
      "▁میشته": 9348,
      "▁نتای": 9349,
      "▁مباح": 9350,
      "▁قزاق": 9351,
      "▁دوخت": 9352,
      "▁حدودو": 9353,
      "حقه": 9354,
      "▁شنډ": 9355,
      "بابوې": 9356,
      "▁حاجت": 9357,
      "▁قربانیان": 9358,
      "رج": 9359,
      "▁ګون": 9360,
      "▁کړله": 9361,
      "▁داخبره": 9362,
      "▁زیږیدلی": 9363,
      "▁ګناهونه": 9364,
      "▁برهان": 9365,
      "▁زړې": 9366,
      "▁بیلابیل": 9367,
      "▁ناج": 9368,
      "▁اکس": 9369,
      "▁بمونه": 9370,
      "▁درغلیو": 9371,
      "▁خوشب": 9372,
      "▁میړ": 9373,
      "▁وګڼ": 9374,
      "▁لص": 9375,
      "▁فکرونه": 9376,
      "▁فتنه": 9377,
      "▁کامیابی": 9378,
      "▁غمه": 9379,
      "▁پېسې": 9380,
      "▁دسولې": 9381,
      "▁زېږېدلی": 9382,
      "دئ": 9383,
      "▁رین": 9384,
      "▁زاد": 9385,
      "▁قون": 9386,
      "▁غنیمت": 9387,
      "▁اوریدل": 9388,
      "گۍ": 9389,
      "▁حجرې": 9390,
      "▁ناکامی": 9391,
      "▁ماینونو": 9392,
      "▁سرپل": 9393,
      "▁ذوال": 9394,
      "▁خرابه": 9395,
      "▁شعارونه": 9396,
      "▁ولوبوی": 9397,
      "▁وآ": 9398,
      "▁خطره": 9399,
      "▁غذایی": 9400,
      "▁کیسو": 9401,
      "▁اصغر": 9402,
      "▁سیاف": 9403,
      "▁ونشی": 9404,
      "لمانانو": 9405,
      "▁دشر": 9406,
      "▁خورې": 9407,
      "▁الکتر": 9408,
      "▁رضایت": 9409,
      "الحق": 9410,
      "▁میاشتنی": 9411,
      "▁ماو": 9412,
      "▁تورات": 9413,
      "▁پرانیستې": 9414,
      "سود": 9415,
      "▁پات": 9416,
      "▁سندره": 9417,
      "▁بروکسل": 9418,
      "▁نولس": 9419,
      "▁سواد": 9420,
      "▁تیارو": 9421,
      "▁حکمران": 9422,
      "▁طبقې": 9423,
      "غات": 9424,
      "▁محض": 9425,
      "▁معدې": 9426,
      "▁کرکې": 9427,
      "▁مستحب": 9428,
      "▁کابینه": 9429,
      "قب": 9430,
      "▁صمیم": 9431,
      "▁رسیدل": 9432,
      "▁قمر": 9433,
      "بیک": 9434,
      "▁عبدالح": 9435,
      "▁ټوکر": 9436,
      "▁کلنټن": 9437,
      "▁وکې": 9438,
      "▁بانکونو": 9439,
      "▁همایون": 9440,
      "▁ښور": 9441,
      "▁ناروې": 9442,
      "▁لیو": 9443,
      "▁کېنا": 9444,
      "▁سلواغې": 9445,
      "▁دیش": 9446,
      "▁اوسط": 9447,
      "▁حجرو": 9448,
      "▁مغلو": 9449,
[...]
